{
  "version": "1.0",
  "truncation": null,
  "padding": null,
  "added_tokens": [
    {
      "id": 0,
      "content": "<|endoftext|>",
      "single_word": false,
      "lstrip": false,
      "rstrip": false,
      "normalized": false,
      "special": true
    }
  ],
  "normalizer": null,
  "pre_tokenizer": {
    "type": "ByteLevel",
    "add_prefix_space": false,
    "trim_offsets": true,
    "use_regex": true
  },
  "post_processor": null,
  "decoder": {
    "type": "ByteLevel",
    "add_prefix_space": true,
    "trim_offsets": true,
    "use_regex": true
  },
  "model": {
    "type": "BPE",
    "dropout": null,
    "unk_token": null,
    "continuing_subword_prefix": null,
    "end_of_word_suffix": null,
    "fuse_unk": false,
    "byte_fallback": false,
    "ignore_merges": false,
    "vocab": {
      "<|endoftext|>": 0,
      "!": 1,
      "\"": 2,
      "#": 3,
      "$": 4,
      "%": 5,
      "&": 6,
      "'": 7,
      "(": 8,
      ")": 9,
      "*": 10,
      "+": 11,
      ",": 12,
      "-": 13,
      ".": 14,
      "/": 15,
      "0": 16,
      "1": 17,
      "2": 18,
      "3": 19,
      "4": 20,
      "5": 21,
      "6": 22,
      "7": 23,
      "8": 24,
      "9": 25,
      ":": 26,
      ";": 27,
      "<": 28,
      "=": 29,
      ">": 30,
      "?": 31,
      "@": 32,
      "A": 33,
      "B": 34,
      "C": 35,
      "D": 36,
      "E": 37,
      "F": 38,
      "G": 39,
      "H": 40,
      "I": 41,
      "J": 42,
      "K": 43,
      "L": 44,
      "M": 45,
      "N": 46,
      "O": 47,
      "P": 48,
      "Q": 49,
      "R": 50,
      "S": 51,
      "T": 52,
      "U": 53,
      "V": 54,
      "W": 55,
      "X": 56,
      "Y": 57,
      "Z": 58,
      "[": 59,
      "\\": 60,
      "]": 61,
      "^": 62,
      "_": 63,
      "`": 64,
      "a": 65,
      "b": 66,
      "c": 67,
      "d": 68,
      "e": 69,
      "f": 70,
      "g": 71,
      "h": 72,
      "i": 73,
      "j": 74,
      "k": 75,
      "l": 76,
      "m": 77,
      "n": 78,
      "o": 79,
      "p": 80,
      "q": 81,
      "r": 82,
      "s": 83,
      "t": 84,
      "u": 85,
      "v": 86,
      "w": 87,
      "x": 88,
      "y": 89,
      "z": 90,
      "{": 91,
      "|": 92,
      "}": 93,
      "~": 94,
      "¡": 95,
      "¢": 96,
      "£": 97,
      "¤": 98,
      "¥": 99,
      "¦": 100,
      "§": 101,
      "¨": 102,
      "©": 103,
      "ª": 104,
      "«": 105,
      "¬": 106,
      "®": 107,
      "¯": 108,
      "°": 109,
      "±": 110,
      "²": 111,
      "³": 112,
      "´": 113,
      "µ": 114,
      "¶": 115,
      "·": 116,
      "¸": 117,
      "¹": 118,
      "º": 119,
      "»": 120,
      "¼": 121,
      "½": 122,
      "¾": 123,
      "¿": 124,
      "À": 125,
      "Á": 126,
      "Â": 127,
      "Ã": 128,
      "Ä": 129,
      "Å": 130,
      "Æ": 131,
      "Ç": 132,
      "È": 133,
      "É": 134,
      "Ê": 135,
      "Ë": 136,
      "Ì": 137,
      "Í": 138,
      "Î": 139,
      "Ï": 140,
      "Ð": 141,
      "Ñ": 142,
      "Ò": 143,
      "Ó": 144,
      "Ô": 145,
      "Õ": 146,
      "Ö": 147,
      "×": 148,
      "Ø": 149,
      "Ù": 150,
      "Ú": 151,
      "Û": 152,
      "Ü": 153,
      "Ý": 154,
      "Þ": 155,
      "ß": 156,
      "à": 157,
      "á": 158,
      "â": 159,
      "ã": 160,
      "ä": 161,
      "å": 162,
      "æ": 163,
      "ç": 164,
      "è": 165,
      "é": 166,
      "ê": 167,
      "ë": 168,
      "ì": 169,
      "í": 170,
      "î": 171,
      "ï": 172,
      "ð": 173,
      "ñ": 174,
      "ò": 175,
      "ó": 176,
      "ô": 177,
      "õ": 178,
      "ö": 179,
      "÷": 180,
      "ø": 181,
      "ù": 182,
      "ú": 183,
      "û": 184,
      "ü": 185,
      "ý": 186,
      "þ": 187,
      "ÿ": 188,
      "Ā": 189,
      "ā": 190,
      "Ă": 191,
      "ă": 192,
      "Ą": 193,
      "ą": 194,
      "Ć": 195,
      "ć": 196,
      "Ĉ": 197,
      "ĉ": 198,
      "Ċ": 199,
      "ċ": 200,
      "Č": 201,
      "č": 202,
      "Ď": 203,
      "ď": 204,
      "Đ": 205,
      "đ": 206,
      "Ē": 207,
      "ē": 208,
      "Ĕ": 209,
      "ĕ": 210,
      "Ė": 211,
      "ė": 212,
      "Ę": 213,
      "ę": 214,
      "Ě": 215,
      "ě": 216,
      "Ĝ": 217,
      "ĝ": 218,
      "Ğ": 219,
      "ğ": 220,
      "Ġ": 221,
      "ġ": 222,
      "Ģ": 223,
      "ģ": 224,
      "Ĥ": 225,
      "ĥ": 226,
      "Ħ": 227,
      "ħ": 228,
      "Ĩ": 229,
      "ĩ": 230,
      "Ī": 231,
      "ī": 232,
      "Ĭ": 233,
      "ĭ": 234,
      "Į": 235,
      "į": 236,
      "İ": 237,
      "ı": 238,
      "Ĳ": 239,
      "ĳ": 240,
      "Ĵ": 241,
      "ĵ": 242,
      "Ķ": 243,
      "ķ": 244,
      "ĸ": 245,
      "Ĺ": 246,
      "ĺ": 247,
      "Ļ": 248,
      "ļ": 249,
      "Ľ": 250,
      "ľ": 251,
      "Ŀ": 252,
      "ŀ": 253,
      "Ł": 254,
      "ł": 255,
      "Ń": 256,
      "Ġd": 257,
      "es": 258,
      "Ġl": 259,
      "Ã©": 260,
      "en": 261,
      "Ġp": 262,
      "on": 263,
      "Ġs": 264,
      "Ġc": 265,
      "ai": 266,
      "ou": 267,
      "Ġde": 268,
      "re": 269,
      "an": 270,
      "qu": 271,
      "Ġa": 272,
      "er": 273,
      "et": 274,
      "Ġm": 275,
      "ent": 276,
      "Ġqu": 277,
      "ar": 278,
      "eu": 279,
      "it": 280,
      "il": 281,
      "is": 282,
      "Ġf": 283,
      "ne": 284,
      "Ġt": 285,
      "Ġet": 286,
      "le": 287,
      "Ġla": 288,
      "in": 289,
      "Ġv": 290,
      "Ãł": 291,
      "ait": 292,
      "Ġle": 293,
      "or": 294,
      "te": 295,
      "ĠÃł": 296,
      "el": 297,
      "Ġn": 298,
      "our": 299,
      "om": 300,
      "Ġles": 301,
      "Ġr": 302,
      "Ã¨": 303,
      "ti": 304,
      "Ġen": 305,
      "ant": 306,
      "us": 307,
      "Ġu": 308,
      "as": 309,
      "Ġb": 310,
      "ais": 311,
      "au": 312,
      "eur": 313,
      "me": 314,
      "Ġdes": 315,
      "oi": 316,
      "Ġj": 317,
      "Ġque": 318,
      "ans": 319,
      "al": 320,
      "Ġpr": 321,
      "Ġau": 322,
      "ĠÃ©": 323,
      "ous": 324,
      "Ġpar": 325,
      "ce": 326,
      "Ġg": 327,
      "est": 328,
      "em": 329,
      "Ġav": 330,
      "ont": 331,
      "ch": 332,
      "ur": 333,
      "ons": 334,
      "Ġqui": 335,
      "Ġil": 336,
      "ĠL": 337,
      "Ġch": 338,
      "ri": 339,
      "Ġdu": 340,
      "Ġun": 341,
      "Ġse": 342,
      "at": 343,
      "Ġre": 344,
      "Ġpl": 345,
      "Ã©s": 346,
      "Ãª": 347,
      "os": 348,
      "ui": 349,
      "res": 350,
      "Ġdans": 351,
      "Ġpour": 352,
      "ag": 353,
      "ĠC": 354,
      "Ġcom": 355,
      "ĠM": 356,
      "elle": 357,
      "ment": 358,
      "tre": 359,
      "Ġtr": 360,
      "Ġpas": 361,
      "Ġne": 362,
      "ouv": 363,
      "and": 364,
      "end": 365,
      "Ġh": 366,
      "li": 367,
      "Ġ_": 368,
      "Ġune": 369,
      "ir": 370,
      "Ã©e": 371,
      "que": 372,
      "ien": 373,
      "ĠÃ©t": 374,
      "les": 375,
      "ain": 376,
      "ie": 377,
      "ois": 378,
      "ati": 379,
      "av": 380,
      "ĠdÃ©": 381,
      "am": 382,
      "se": 383,
      "ab": 384,
      "oit": 385,
      "si": 386,
      "out": 387,
      "Ġce": 388,
      "ol": 389,
      "ec": 390,
      "Ġplus": 391,
      "..": 392,
      "onn": 393,
      "ap": 394,
      "Ġest": 395,
      "aient": 396,
      "ĠP": 397,
      "ers": 398,
      "un": 399,
      "ort": 400,
      "Ġson": 401,
      "ĠS": 402,
      "Ġin": 403,
      "pr": 404,
      "Ã©r": 405,
      "ĠI": 406,
      "Ġsur": 407,
      "âĢ": 408,
      "ac": 409,
      "ĠA": 410,
      "Ġo": 411,
      "Ġsi": 412,
      "Ã¨re": 413,
      "Ġlui": 414,
      "--": 415,
      "de": 416,
      "ĠD": 417,
      "Ã©t": 418,
      "ff": 419,
      "ut": 420,
      "oy": 421,
      "eux": 422,
      "eurs": 423,
      "Ã¨s": 424,
      "ci": 425,
      "ĠE": 426,
      "ex": 427,
      "Ġgr": 428,
      "Ġje": 429,
      "oir": 430,
      "aire": 431,
      "ette": 432,
      "âĢĻ": 433,
      "Ġsa": 434,
      "Ġavec": 435,
      "Ġtout": 436,
      "ig": 437,
      "ation": 438,
      "im": 439,
      "ĠrÃ©": 440,
      "oin": 441,
      "ĠB": 442,
      "ĠIl": 443,
      "iv": 444,
      "uis": 445,
      "Ġcon": 446,
      "op": 447,
      "Ġses": 448,
      "ad": 449,
      "ĠR": 450,
      "ĠJ": 451,
      "ier": 452,
      "Ġ1": 453,
      "Ġmais": 454,
      "emp": 455,
      "ens": 456,
      "Ã¢": 457,
      "Ġvous": 458,
      "ĠF": 459,
      "mes": 460,
      "ĠÂ": 461,
      "Ã§": 462,
      "ran": 463,
      "ement": 464,
      "itÃ©": 465,
      "ist": 466,
      "ille": 467,
      "ĠV": 468,
      "ot": 469,
      "une": 470,
      "ul": 471,
      "ge": 472,
      "age": 473,
      "ue": 474,
      "ard": 475,
      "Ġnous": 476,
      "Ġcomme": 477,
      "ĠÂ«": 478,
      "Ã©n": 479,
      "Ġou": 480,
      "Ġar": 481,
      "Ġpeu": 482,
      "ux": 483,
      "Ġex": 484,
      "ure": 485,
      "Ġcette": 486,
      "aut": 487,
      "Â»": 488,
      "ques": 489,
      "Ġleur": 490,
      "Ġavait": 491,
      "ill": 492,
      "Ġon": 493,
      "Ġsu": 494,
      "ĠN": 495,
      "ĠT": 496,
      "ces": 497,
      "Ã®": 498,
      "Ġy": 499,
      "Ġent": 500,
      "Ãªme": 501,
      "Ã©es": 502,
      "Ġces": 503,
      "Ġbien": 504,
      "rent": 505,
      "Ġfait": 506,
      "Ġelle": 507,
      "tr": 508,
      "Ã´": 509,
      "Ġcont": 510,
      "Ġme": 511,
      "Ġdi": 512,
      "...": 513,
      "ion": 514,
      "ĠLe": 515,
      "eau": 516,
      "id": 517,
      "ĠG": 518,
      "ĠÃ©tait": 519,
      "Ġpro": 520,
      "che": 521,
      "tion": 522,
      "Ġcr": 523,
      "Ġcons": 524,
      "Ġdev": 525,
      "Ġaux": 526,
      "Ġdit": 527,
      "_,": 528,
      "ail": 529,
      "Ġmon": 530,
      "ert": 531,
      "ord": 532,
      "Ġche": 533,
      "able": 534,
      "Ġmar": 535,
      "ic": 536,
      "pp": 537,
      "Ã©d": 538,
      "Ġgrand": 539,
      "uit": 540,
      "oul": 541,
      "ours": 542,
      "oup": 543,
      "ond": 544,
      "Ġal": 545,
      "Ġli": 546,
      "Ã¹": 547,
      "ence": 548,
      "Ġser": 549,
      "Ãªtre": 550,
      "mi": 551,
      "ance": 552,
      "ĠO": 553,
      "Ġquel": 554,
      "ors": 555,
      ".--": 556,
      "Ġ(": 557,
      "Ã»": 558,
      "Ġtou": 559,
      "ore": 560,
      "Ġdis": 561,
      "ale": 562,
      "Ġsans": 563,
      "tes": 564,
      "cc": 565,
      "ang": 566,
      "ble": 567,
      "ine": 568,
      "bre": 569,
      "ĠoÃ¹": 570,
      "Ġdeux": 571,
      "Ġsont": 572,
      "Ġas": 573,
      "aux": 574,
      "onne": 575,
      "Ã©ri": 576,
      "elles": 577,
      "Ġfaire": 578,
      "ĠmÃªme": 579,
      "Ġim": 580,
      "ve": 581,
      "tres": 582,
      "iss": 583,
      "ay": 584,
      "endre": 585,
      "Ã¨rent": 586,
      "Ġcomm": 587,
      "Ã©c": 588,
      "ils": 589,
      "ĠJe": 590,
      "Ġfor": 591,
      "Ã©g": 592,
      "ter": 593,
      "aÃ®": 594,
      "ĠLa": 595,
      "gn": 596,
      "omme": 597,
      "um": 598,
      "ass": 599,
      "Ġcomp": 600,
      "Ġtous": 601,
      "ign": 602,
      "app": 603,
      "rÃ©": 604,
      "Ġ--": 605,
      "Ġcar": 606,
      "Ġenc": 607,
      "ĠLes": 608,
      "mp": 609,
      "erre": 610,
      "Ġan": 611,
      "Ġdont": 612,
      "ess": 613,
      "ante": 614,
      "lle": 615,
      "Ġnom": 616,
      "Ġfut": 617,
      "og": 618,
      "ĠH": 619,
      "Ġdonn": 620,
      "Ġcel": 621,
      "Ġtrouv": 622,
      "di": 623,
      "ĠQ": 624,
      "ite": 625,
      "Ġfr": 626,
      "bli": 627,
      "aiss": 628,
      "ise": 629,
      "prÃ¨s": 630,
      "Ã´t": 631,
      "_.": 632,
      "Ġper": 633,
      "oient": 634,
      "rer": 635,
      "ussi": 636,
      "ĠrÃ©p": 637,
      "Ġencore": 638,
      "onc": 639,
      "int": 640,
      "Ġtemp": 641,
      "endant": 642,
      "ez": 643,
      "aint": 644,
      "Ġmal": 645,
      "Ã©tait": 646,
      "ote": 647,
      "Ġbr": 648,
      "Ġparti": 649,
      "Ġpre": 650,
      "ĠÃ©tÃ©": 651,
      "Ġleurs": 652,
      "ler": 653,
      "oint": 654,
      "Ġfem": 655,
      "Ġ2": 656,
      "esp": 657,
      "enir": 658,
      "Ġdem": 659,
      "Ġjus": 660,
      "rait": 661,
      ".Â»": 662,
      "Ġam": 663,
      "Ġmes": 664,
      "emb": 665,
      "Ġapp": 666,
      "oire": 667,
      "Ġpuis": 668,
      "ĠÃ©c": 669,
      "ieu": 670,
      "ins": 671,
      "ĠFran": 672,
      "Ã»t": 673,
      "ĠCh": 674,
      "Ġils": 675,
      "otre": 676,
      "ĠEt": 677,
      "Ġe": 678,
      "Ġat": 679,
      "itu": 680,
      "ique": 681,
      "eure": 682,
      "Ġcour": 683,
      "ob": 684,
      "nes": 685,
      "ĠOn": 686,
      "ra": 687,
      "art": 688,
      "Ġroy": 689,
      "Ġaussi": 690,
      "Ġpoint": 691,
      "ations": 692,
      "Ġpet": 693,
      "Ġtemps": 694,
      "ĠgÃ©n": 695,
      "ĠdÃ©s": 696,
      "Ġpass": 697,
      "Ġma": 698,
      "Ġjour": 699,
      "Ã©l": 700,
      "ants": 701,
      "ace": 702,
      "Ãī": 703,
      "pos": 704,
      "cher": 705,
      "Ġentre": 706,
      "oc": 707,
      "Ã¨res": 708,
      "st": 709,
      "omp": 710,
      "Ġseu": 711,
      "aine": 712,
      "Ġpeut": 713,
      "Ġsous": 714,
      "Ġchev": 715,
      "Ã©p": 716,
      "ame": 717,
      "Ã©m": 718,
      "Ãĥ": 719,
      "oins": 720,
      "iens": 721,
      "od": 722,
      "Ġman": 723,
      "roit": 724,
      "ĠEn": 725,
      "Ġport": 726,
      "ĠQu": 727,
      "sion": 728,
      "orte": 729,
      "iÃ¨re": 730,
      "gl": 731,
      "ĠMais": 732,
      "Ġdou": 733,
      "âĢĶ": 734,
      "Ġvi": 735,
      "Ġpouv": 736,
      "Ġeu": 737,
      "._": 738,
      "Ġfort": 739,
      "ong": 740,
      "riv": 741,
      "ages": 742,
      "Ġpos": 743,
      "Ġtoutes": 744,
      "ĠÃªtre": 745,
      "Ġrec": 746,
      "up": 747,
      "ions": 748,
      "Ġenf": 749,
      "anc": 750,
      "ommes": 751,
      "Ġpers": 752,
      "ĠU": 753,
      "ĠCe": 754,
      "Ġcontre": 755,
      "ile": 756,
      "ition": 757,
      "ĠaprÃ¨s": 758,
      "Ġai": 759,
      "Ġtoute": 760,
      "Ġpart": 761,
      "Ãªte": 762,
      "Ġjeu": 763,
      "ĠPar": 764,
      "ing": 765,
      "Ġdire": 766,
      "Ġvoul": 767,
      "Ġvie": 768,
      "auv": 769,
      "Ġfl": 770,
      "Ġven": 771,
      "ta": 772,
      "iers": 773,
      "Ġad": 774,
      "cl": 775,
      "Ġcor": 776,
      "Ġpo": 777,
      "ĠtrÃ¨s": 778,
      "Ġab": 779,
      "Ġpu": 780,
      "Ġont": 781,
      "Ġac": 782,
      "agn": 783,
      "ains": 784,
      "Ġmont": 785,
      "Ġchos": 786,
      "Ġnouv": 787,
      "all": 788,
      "aus": 789,
      "Ġsou": 790,
      "ouver": 791,
      "uc": 792,
      "ĠÃ©p": 793,
      "ĠgÃ©nÃ©r": 794,
      "Ġ[": 795,
      "Ġprin": 796,
      "Ġbeau": 797,
      "Ġfemme": 798,
      "if": 799,
      "Ġenv": 800,
      "Ġacc": 801,
      "aires": 802,
      "Ġtant": 803,
      "Ġmoi": 804,
      "Ġfais": 805,
      "Ġtrois": 806,
      "Ġass": 807,
      "ieux": 808,
      "Ġmoins": 809,
      "aill": 810,
      "II": 811,
      "ies": 812,
      "Ġsec": 813,
      "ĠFrance": 814,
      "ĠlÃł": 815,
      "Ġfran": 816,
      "erv": 817,
      "tÃ©": 818,
      "Ġnon": 819,
      "omb": 820,
      "Ġgu": 821,
      "Ġimp": 822,
      "jours": 823,
      "ourn": 824,
      "uiv": 825,
      "amp": 826,
      "Ã©v": 827,
      "ĠprÃ©s": 828,
      "Ġquand": 829,
      "urent": 830,
      "Ġren": 831,
      "ente": 832,
      "tions": 833,
      "Ġdemand": 834,
      "tant": 835,
      "Ġhomme": 836,
      "Ġprop": 837,
      "Ġquelques": 838,
      "ettre": 839,
      "ments": 840,
      "Ġpetit": 841,
      "Ġautre": 842,
      "Note": 843,
      "Ġrepr": 844,
      "Ġcol": 845,
      "Ġjam": 846,
      "Ġlong": 847,
      "Ġavoir": 848,
      "Ġquelque": 849,
      "Ġtoujours": 850,
      "Ġ.": 851,
      "Ġrien": 852,
      "ĠX": 853,
      "Ġob": 854,
      "ĠdÃ©p": 855,
      "rit": 856,
      "Ġap": 857,
      "ues": 858,
      "are": 859,
      "Ġchar": 860,
      "Ġsent": 861,
      "ents": 862,
      "Ġfois": 863,
      "Ġni": 864,
      "Ġautres": 865,
      "Ġrem": 866,
      "ĠrÃ©s": 867,
      "Ġvers": 868,
      "illes": 869,
      "jet": 870,
      "mÃ©e": 871,
      "ire": 872,
      "Ġreg": 873,
      "ĠElle": 874,
      "avait": 875,
      "Ġserv": 876,
      "ĠÃ©taient": 877,
      "Ġchez": 878,
      "ug": 879,
      "tu": 880,
      "Ġvol": 881,
      "Ġtrav": 882,
      "uy": 883,
      "Ġcoup": 884,
      "ĠdÃ©f": 885,
      "Ġconn": 886,
      "Ġrev": 887,
      "Ġdevant": 888,
      "Ġcela": 889,
      "Ġret": 890,
      "oli": 891,
      "Ġes": 892,
      "Ġder": 893,
      "ches": 894,
      "Ã¯": 895,
      "Ġpay": 896,
      "Ã§ais": 897,
      "ici": 898,
      "ature": 899,
      "Ġall": 900,
      "Ġjusqu": 901,
      "embl": 902,
      "Ġfaut": 903,
      "Ġter": 904,
      "Ġjamais": 905,
      "Ġfit": 906,
      "Ġconf": 907,
      "lement": 908,
      "ses": 909,
      "Ġco": 910,
      "ient": 911,
      "puis": 912,
      "Ġcheval": 913,
      "Ġdonc": 914,
      "Ġpremi": 915,
      "Ġemp": 916,
      "autre": 917,
      "Ġfer": 918,
      "Ġhommes": 919,
      "ainsi": 920,
      "Ġ3": 921,
      "lev": 922,
      "Ġpris": 923,
      "aÃ®tre": 924,
      "irent": 925,
      "Ġainsi": 926,
      "iÃ¨": 927,
      "sez": 928,
      "Ġceux": 929,
      "Ġbon": 930,
      ".]": 931,
      "Ġeff": 932,
      "tel": 933,
      "agne": 934,
      "Ġcond": 935,
      "Ġliv": 936,
      "Ġcelui": 937,
      "Ġville": 938,
      "Ã©ch": 939,
      "Ġavaient": 940,
      "Ġvoir": 941,
      "Ġsouv": 942,
      "Ġcet": 943,
      "Ġvoy": 944,
      "Ġaff": 945,
      "ret": 946,
      "orm": 947,
      "Ãªt": 948,
      "ole": 949,
      "Ġpe": 950,
      "Ġrapp": 951,
      "Ġmil": 952,
      "ĠParis": 953,
      "Ġor": 954,
      "avoir": 955,
      "rai": 956,
      "quel": 957,
      "Ġroi": 958,
      "ect": 959,
      "Ġcelle": 960,
      "Ġtu": 961,
      "adame": 962,
      "Ġtrop": 963,
      "ĠdÃ©c": 964,
      "Ġph": 965,
      "Ġavoit": 966,
      "Ġsuiv": 967,
      "ĠSaint": 968,
      "Le": 969,
      "Ġsol": 970,
      "Ġ18": 971,
      "dre": 972,
      "Ġavant": 973,
      "Ġlaiss": 974,
      "ables": 975,
      "cle": 976,
      "este": 977,
      "Ġdroit": 978,
      "Ġgrande": 979,
      "Ġgar": 980,
      "ures": 981,
      "ade": 982,
      "Ġmort": 983,
      "Ġmot": 984,
      "Ġhab": 985,
      "Ġconv": 986,
      "iste": 987,
      "iÃ©": 988,
      "Ġlors": 989,
      "Ġins": 990,
      "enant": 991,
      "Ġans": 992,
      "Ġnos": 993,
      "Ġmonde": 994,
      "Ġ=": 995,
      "Ġfin": 996,
      "Ġsc": 997,
      "mer": 998,
      "ĠgÃ©nÃ©ral": 999,
      "mÃªme": 1000,
      "Ġfurent": 1001,
      "Ġlieu": 1002,
      "Ġrend": 1003,
      "ĠAn": 1004,
      "ct": 1005,
      "Ġord": 1006,
      "Ġexp": 1007,
      "Ġprof": 1008,
      "Ġrest": 1009,
      "Ġatt": 1010,
      "Ġduc": 1011,
      "ats": 1012,
      "uss": 1013,
      "ieur": 1014,
      "Åĵ": 1015,
      "Ġnotre": 1016,
      "ĠprÃ©": 1017,
      "ph": 1018,
      "reur": 1019,
      "oix": 1020,
      "omm": 1021,
      "Â©": 1022,
      "prit": 1023,
      "ĠsiÃ¨": 1024,
      "Ġalors": 1025,
      "eures": 1026,
      "Ġdiff": 1027,
      "Ġviv": 1028,
      "ps": 1029,
      "Ġdepuis": 1030,
      "oci": 1031,
      "Ġvis": 1032,
      "oie": 1033,
      "onsieur": 1034,
      "asse": 1035,
      "Ġbl": 1036,
      "erie": 1037,
      "cip": 1038,
      "Ġarriv": 1039,
      "Ġcl": 1040,
      "Ġfu": 1041,
      "Ġjou": 1042,
      "Ġesp": 1043,
      "Ġdern": 1044,
      "ĠSi": 1045,
      "tement": 1046,
      "coup": 1047,
      "Ġauc": 1048,
      "Ġmer": 1049,
      "Ġpays": 1050,
      "lig": 1051,
      "Ġdonner": 1052,
      "ĠMar": 1053,
      "oment": 1054,
      "use": 1055,
      "ales": 1056,
      "ud": 1057,
      "Ġmis": 1058,
      "Ġsuis": 1059,
      "ell": 1060,
      "ĠUn": 1061,
      "Ġpens": 1062,
      "ĠfranÃ§ais": 1063,
      "Ġjours": 1064,
      "quer": 1065,
      "Ġquat": 1066,
      "gne": 1067,
      "ĠdÃ©j": 1068,
      "Ġdiv": 1069,
      "mier": 1070,
      "Ġsoit": 1071,
      "Ġcontr": 1072,
      "ances": 1073,
      "Ġcher": 1074,
      "Ġvotre": 1075,
      "rib": 1076,
      "igneur": 1077,
      "mis": 1078,
      "Ġcert": 1079,
      "Ġmille": 1080,
      "Ġassez": 1081,
      "Ġgens": 1082,
      "=.--": 1083,
      "lic": 1084,
      "Ġpendant": 1085,
      "Ġchose": 1086,
      "Ġnature": 1087,
      "Ġjeune": 1088,
      "Ġterre": 1089,
      "ĠrÃ©pond": 1090,
      "Ġbat": 1091,
      "vous": 1092,
      "ost": 1093,
      "antes": 1094,
      "aud": 1095,
      "Ġnombre": 1096,
      "Ġmain": 1097,
      "euse": 1098,
      "oute": 1099,
      "ĠRoi": 1100,
      "ĠnÃ©": 1101,
      "Ġind": 1102,
      "uite": 1103,
      "fin": 1104,
      "aille": 1105,
      "Ġaut": 1106,
      "rie": 1107,
      "Ġcap": 1108,
      "oil": 1109,
      "Ġeux": 1110,
      "Ġcorps": 1111,
      "ress": 1112,
      "arr": 1113,
      "ĠDe": 1114,
      "Ġcomb": 1115,
      "pendant": 1116,
      "Ġpremier": 1117,
      "An": 1118,
      "Ġfils": 1119,
      "tif": 1120,
      "Ġbeaucoup": 1121,
      "Ġpres": 1122,
      "ath": 1123,
      "ĠAl": 1124,
      "temp": 1125,
      "act": 1126,
      "eaux": 1127,
      "fois": 1128,
      "Ġchap": 1129,
      "Ġcaus": 1130,
      "Ġouv": 1131,
      "Ġmoment": 1132,
      "vent": 1133,
      "min": 1134,
      "ieurs": 1135,
      "Ġsens": 1136,
      ").": 1137,
      "lÃ©": 1138,
      "Ġ4": 1139,
      "Ġtrait": 1140,
      "ult": 1141,
      "ĠdÃ©jÃł": 1142,
      "Ġann": 1143,
      "isme": 1144,
      "00": 1145,
      "iter": 1146,
      "Ġregard": 1147,
      "ĠtÃªte": 1148,
      "ĠprÃ¨s": 1149,
      "ereur": 1150,
      "Ġpubli": 1151,
      "uli": 1152,
      "Ġdist": 1153,
      "mÃ©": 1154,
      "ze": 1155,
      "igne": 1156,
      "Ġseul": 1157,
      "itÃ©s": 1158,
      "Ġsal": 1159,
      "ourd": 1160,
      "eut": 1161,
      "Ġbou": 1162,
      "ĠÃ©v": 1163,
      "ĠpÃ¨re": 1164,
      "Ġpap": 1165,
      "Ġpartie": 1166,
      "ĠJean": 1167,
      "Ġyeux": 1168,
      "ines": 1169,
      "ĠFl": 1170,
      "inc": 1171,
      "Je": 1172,
      "!...": 1173,
      "Ġheures": 1174,
      "ĠcÃ´t": 1175,
      "Ġfam": 1176,
      "cep": 1177,
      "air": 1178,
      "Ġbar": 1179,
      "rÃ¨s": 1180,
      "chÃ©": 1181,
      "Ġoff": 1182,
      "Ġint": 1183,
      "ĠDieu": 1184,
      "emble": 1185,
      "Ã¢t": 1186,
      "enait": 1187,
      "ov": 1188,
      "Ġporte": 1189,
      "tique": 1190,
      "RE": 1191,
      "Ġinc": 1192,
      "acc": 1193,
      "ice": 1194,
      "ienne": 1195,
      "ites": 1196,
      "Ġeut": 1197,
      "Ġfille": 1198,
      "Il": 1199,
      "ĠCette": 1200,
      "Ġva": 1201,
      "Ġlit": 1202,
      "Ġfond": 1203,
      "oign": 1204,
      "iques": 1205,
      "Ġmari": 1206,
      "Ġmin": 1207,
      "ied": 1208,
      "Ġcas": 1209,
      "Ġpersonne": 1210,
      "Ġhaut": 1211,
      "itude": 1212,
      "Ġens": 1213,
      "ĠDans": 1214,
      "aison": 1215,
      "Ġmoy": 1216,
      "Ġpeup": 1217,
      "),": 1218,
      "enne": 1219,
      "ĠAu": 1220,
      "Ġ5": 1221,
      "Ġplais": 1222,
      "Ġgouver": 1223,
      "Ġquatre": 1224,
      "Ġcent": 1225,
      "Ġocc": 1226,
      "enu": 1227,
      "Ġplusieurs": 1228,
      "ia": 1229,
      "Ġfemmes": 1230,
      "Ġpouvait": 1231,
      "Ġbas": 1232,
      "ourg": 1233,
      "ĠpremiÃ¨re": 1234,
      "Ġappr": 1235,
      "Ġsouvent": 1236,
      "Ġmadame": 1237,
      "att": 1238,
      "Ġinf": 1239,
      "Ġsign": 1240,
      "ets": 1241,
      "ense": 1242,
      "Ġplace": 1243,
      "Ġgl": 1244,
      "ĠdÃ©v": 1245,
      "arg": 1246,
      "Ġsp": 1247,
      "ib": 1248,
      "ĠsiÃ¨cle": 1249,
      "heure": 1250,
      "alitÃ©": 1251,
      "ĠNous": 1252,
      "Ġtomb": 1253,
      "ves": 1254,
      "Ġheure": 1255,
      "homme": 1256,
      "ĠlÃ©g": 1257,
      "fs": 1258,
      "Ã©tÃ©": 1259,
      "onnes": 1260,
      "Ġguerre": 1261,
      "ver": 1262,
      "sible": 1263,
      "Ġmieux": 1264,
      "Ã§a": 1265,
      "Ġvoit": 1266,
      "Ġmo": 1267,
      "Ġprom": 1268,
      "Ġri": 1269,
      "Ġsex": 1270,
      "hÃ©": 1271,
      "Ġprendre": 1272,
      "Ġmor": 1273,
      "Ġelles": 1274,
      "ĠPour": 1275,
      "aque": 1276,
      "Ãªtes": 1277,
      "ĠdÃ©b": 1278,
      "cess": 1279,
      "Ġpied": 1280,
      "ĠRom": 1281,
      "Ġgrant": 1282,
      "Ġsupp": 1283,
      "Ġlib": 1284,
      "Ġsembl": 1285,
      "Ġag": 1286,
      "Ã¨ne": 1287,
      "ĠprÃ©sent": 1288,
      "ĠChar": 1289,
      "aines": 1290,
      "Ġcin": 1291,
      "ĠÃ©l": 1292,
      "lÃł": 1293,
      "ĠIls": 1294,
      "ambre": 1295,
      "uer": 1296,
      "och": 1297,
      "Ġprod": 1298,
      "be": 1299,
      "Ġreconn": 1300,
      "Ġst": 1301,
      "Ġconse": 1302,
      "Ġparce": 1303,
      "Ġmaison": 1304,
      "aph": 1305,
      "la": 1306,
      "par": 1307,
      "Ġfeu": 1308,
      "Ġver": 1309,
      "ĠÃ¢": 1310,
      "Ġ,": 1311,
      "ner": 1312,
      "Ġsais": 1313,
      "Ġcommand": 1314,
      "ĠcÃ´tÃ©": 1315,
      "pt": 1316,
      "Ġmat": 1317,
      "ĠAr": 1318,
      "Ġsav": 1319,
      "Ġlaqu": 1320,
      "tin": 1321,
      "Ġfac": 1322,
      "tir": 1323,
      "vre": 1324,
      "gÃ©": 1325,
      "Ġbonne": 1326,
      "aÃ®t": 1327,
      "Ġvrai": 1328,
      "olu": 1329,
      "Ġang": 1330,
      "Ġchoses": 1331,
      "nement": 1332,
      "Ġquoi": 1333,
      "Ġbes": 1334,
      "ON": 1335,
      "Ġid": 1336,
      "cs": 1337,
      "aul": 1338,
      "ose": 1339,
      "Ġcommen": 1340,
      "ĠÃ©g": 1341,
      "aise": 1342,
      "autres": 1343,
      "itions": 1344,
      "Ġestoit": 1345,
      "Ġprov": 1346,
      "temps": 1347,
      "ĠMont": 1348,
      "ouss": 1349,
      "armÃ©e": 1350,
      "Ġtrans": 1351,
      "ger": 1352,
      "ss": 1353,
      "Ġ6": 1354,
      "Ġcri": 1355,
      "Ġserait": 1356,
      "amb": 1357,
      "Ġnuit": 1358,
      "Ġmen": 1359,
      "olog": 1360,
      "Ġpresque": 1361,
      "Ġtour": 1362,
      "Ġinter": 1363,
      "Ġremp": 1364,
      "onde": 1365,
      "Ġdoit": 1366,
      "Ġluy": 1367,
      "ĠPh": 1368,
      "ĠRe": 1369,
      "ach": 1370,
      "imp": 1371,
      "Ġgard": 1372,
      "ate": 1373,
      "Ġcontin": 1374,
      "Ġrapport": 1375,
      "Ġte": 1376,
      "fait": 1377,
      "ellement": 1378,
      "ili": 1379,
      "Ar": 1380,
      "Ġlaquelle": 1381,
      "Ġsort": 1382,
      "Ġpeine": 1383,
      "ĠâĢĶ": 1384,
      "ĠÃ": 1385,
      "Ġlang": 1386,
      "Ã§on": 1387,
      "Ġperd": 1388,
      "Ġpetite": 1389,
      "Ġretr": 1390,
      "uel": 1391,
      "Ġmettre": 1392,
      "amour": 1393,
      "oÃ»t": 1394,
      "ingt": 1395,
      "rÃ©e": 1396,
      "Ġcouv": 1397,
      "Ġmus": 1398,
      "oule": 1399,
      "ast": 1400,
      "Ġmessi": 1401,
      "nent": 1402,
      "ix": 1403,
      "cev": 1404,
      "ah": 1405,
      "Ġenfin": 1406,
      "Ġcompr": 1407,
      "Ġici": 1408,
      "Ġreste": 1409,
      "ĠeÃ»t": 1410,
      "des": 1411,
      "oph": 1412,
      "Ġdesc": 1413,
      "AN": 1414,
      "alement": 1415,
      "Ġseulement": 1416,
      "Ġfall": 1417,
      "._âĢĶ": 1418,
      "ĠreÃ§": 1419,
      "Ġresp": 1420,
      "Ġsub": 1421,
      "Ġpuiss": 1422,
      "aÃ¯": 1423,
      "Ġconc": 1424,
      "ett": 1425,
      "aprÃ¨s": 1426,
      "ĠÎ": 1427,
      "ĠvÃ©r": 1428,
      "ĠCar": 1429,
      "Ġ19": 1430,
      "Ã«": 1431,
      "ann": 1432,
      "tout": 1433,
      "Ġmur": 1434,
      "Ġvu": 1435,
      "Ġress": 1436,
      "Ġexc": 1437,
      "ĠUne": 1438,
      "ardin": 1439,
      "Ġcal": 1440,
      "eterre": 1441,
      "oilÃł": 1442,
      "istoire": 1443,
      ".)": 1444,
      "Ġsouff": 1445,
      "oque": 1446,
      "gleterre": 1447,
      "Ġcamp": 1448,
      "Ġhum": 1449,
      "cont": 1450,
      "je": 1451,
      "Ġju": 1452,
      "Ġcommun": 1453,
      "occ": 1454,
      "Ġtroup": 1455,
      "ĠÃī": 1456,
      "yp": 1457,
      "Ġdonne": 1458,
      "Ġ16": 1459,
      "Ġdix": 1460,
      "Ġpat": 1461,
      "ierre": 1462,
      "exp": 1463,
      "Ġcrois": 1464,
      "sions": 1465,
      "rais": 1466,
      "LE": 1467,
      "Ġfig": 1468,
      "Ġtrouver": 1469,
      "ĠPr": 1470,
      "Ġgrands": 1471,
      "Ġmilieu": 1472,
      "Åĵur": 1473,
      "ailleurs": 1474,
      "Ġloin": 1475,
      "erm": 1476,
      "ĠNote": 1477,
      "rir": 1478,
      "Ġref": 1479,
      "Ġaurait": 1480,
      "ĠmÃ¨re": 1481,
      "aume": 1482,
      "Ġ14": 1483,
      "cid": 1484,
      "oux": 1485,
      "uire": 1486,
      "Ġsenti": 1487,
      "istes": 1488,
      "Ġdom": 1489,
      "empereur": 1490,
      "sp": 1491,
      "Ġmonsieur": 1492,
      "Ġprincip": 1493,
      "Ã©ment": 1494,
      "Ġprince": 1495,
      "Ġfaisait": 1496,
      "Ġcou": 1497,
      "Ã©nit": 1498,
      "Ġimm": 1499,
      "Ġaucun": 1500,
      "ber": 1501,
      "Ġanc": 1502,
      "ĠprÃ©c": 1503,
      "Ġforce": 1504,
      "Ġetc": 1505,
      "Ġriv": 1506,
      "Ġmois": 1507,
      "ind": 1508,
      "ainte": 1509,
      "Ġdoute": 1510,
      "eus": 1511,
      "Ġinst": 1512,
      "Ġsoci": 1513,
      "Ġsy": 1514,
      "Ġconsid": 1515,
      "ĠGr": 1516,
      "Ġjet": 1517,
      "Ġtrouve": 1518,
      "aute": 1519,
      "Ġcependant": 1520,
      "Ġatta": 1521,
      "iles": 1522,
      "Ġchaque": 1523,
      "riÃ¨re": 1524,
      "ĠCes": 1525,
      "Ġhabit": 1526,
      "TE": 1527,
      "Ġgros": 1528,
      "iel": 1529,
      "ĠK": 1530,
      "ĠmÃ©d": 1531,
      "Ġrendre": 1532,
      "Ġchambre": 1533,
      "Ġvos": 1534,
      "raient": 1535,
      "Ġrelig": 1536,
      "Ġ(_": 1537,
      "ĠmaniÃ¨re": 1538,
      "hui": 1539,
      "aisse": 1540,
      "Ġdevait": 1541,
      "ub": 1542,
      "jourd": 1543,
      "Ġenne": 1544,
      "Ġmod": 1545,
      "ements": 1546,
      "ange": 1547,
      "Ġay": 1548,
      "oult": 1549,
      "Ġgen": 1550,
      "gr": 1551,
      "grÃ©": 1552,
      "ĠdÃ©t": 1553,
      "appr": 1554,
      "lus": 1555,
      "Ġrep": 1556,
      "onneur": 1557,
      "Ġsoir": 1558,
      "Ġcir": 1559,
      "endu": 1560,
      "_:": 1561,
      "Ġsurtout": 1562,
      "abord": 1563,
      "Ġbelle": 1564,
      "ises": 1565,
      "Ġchem": 1566,
      "Ġconte": 1567,
      "avais": 1568,
      "Ġcaract": 1569,
      "lir": 1570,
      "Ġcompos": 1571,
      "lÃ¨": 1572,
      "Ġappel": 1573,
      "Ġval": 1574,
      "ateur": 1575,
      "Ġcause": 1576,
      "Ġvint": 1577,
      "Ġjeunes": 1578,
      "veill": 1579,
      "Ġbois": 1580,
      "Ġsimp": 1581,
      "uction": 1582,
      "Ġpeuple": 1583,
      "Ġgal": 1584,
      "Ġvoix": 1585,
      "Ãªmes": 1586,
      "ĠÃ©toit": 1587,
      "Ã©on": 1588,
      "Ġpasser": 1589,
      "ĠDE": 1590,
      "raph": 1591,
      "Ġarr": 1592,
      "Ġplaisir": 1593,
      "Ġpauv": 1594,
      "ĠrÃ©c": 1595,
      "_;": 1596,
      "sc": 1597,
      "Ġsera": 1598,
      "!Â»": 1599,
      "ĠreprÃ©s": 1600,
      "Ġparler": 1601,
      "ĠrÃ©g": 1602,
      "Ġpropos": 1603,
      "iÃ¨me": 1604,
      "Ġmaint": 1605,
      "Ġvois": 1606,
      "Ġpouvoir": 1607,
      "onse": 1608,
      "ĠVen": 1609,
      "Ġcomte": 1610,
      "bles": 1611,
      "iÃ¨res": 1612,
      "Ġsup": 1613,
      "Ġmour": 1614,
      "Ã©taient": 1615,
      "Ġveut": 1616,
      "Ġpai": 1617,
      "esprit": 1618,
      "opp": 1619,
      "ĠNap": 1620,
      "aff": 1621,
      "Ġsujet": 1622,
      "ĠmarÃ©ch": 1623,
      "Ġmains": 1624,
      "Ġcoeur": 1625,
      "Ġquit": 1626,
      "Ġsac": 1627,
      "rez": 1628,
      "ĠrÃ©v": 1629,
      "onner": 1630,
      "ern": 1631,
      "Ġrencont": 1632,
      "Ġcirc": 1633,
      "Ġdispos": 1634,
      "Ġsus": 1635,
      "arti": 1636,
      "Ġtel": 1637,
      "Ġsucc": 1638,
      "Ã©par": 1639,
      "ĠW": 1640,
      "entes": 1641,
      "enf": 1642,
      "Ġpol": 1643,
      "loy": 1644,
      "issent": 1645,
      "ĠRome": 1646,
      "ĠmaÃ®tre": 1647,
      "ientÃ´t": 1648,
      "ges": 1649,
      "Ġcroy": 1650,
      "Ġenvoy": 1651,
      "chant": 1652,
      "Ġtrou": 1653,
      "Ġrom": 1654,
      "oure": 1655,
      "Ġ15": 1656,
      "Ġple": 1657,
      "ma": 1658,
      "Ġraison": 1659,
      "ades": 1660,
      "dess": 1661,
      "Ġ12": 1662,
      "ilitÃ©": 1663,
      "heur": 1664,
      "ĠÃ©tran": 1665,
      "Ġvingt": 1666,
      "ĠpiÃ¨": 1667,
      "Ġmauv": 1668,
      "Ġperm": 1669,
      "Ġ17": 1670,
      "tal": 1671,
      "ression": 1672,
      "ention": 1673,
      "ubli": 1674,
      "esse": 1675,
      "Ġjourn": 1676,
      "Ġsoup": 1677,
      "ograph": 1678,
      "Ġ7": 1679,
      "ĠdiffÃ©r": 1680,
      "Ġsour": 1681,
      "quis": 1682,
      "aign": 1683,
      "ĠQuant": 1684,
      "Ġremar": 1685,
      "ction": 1686,
      "ĠfÃ»t": 1687,
      "Ġsaint": 1688,
      "oles": 1689,
      "qui": 1690,
      "Ġeffet": 1691,
      "Ġfamille": 1692,
      "atis": 1693,
      "Ã¢te": 1694,
      "Ġfav": 1695,
      "Ġdess": 1696,
      "Ġnouvelle": 1697,
      "Ã¨me": 1698,
      "ich": 1699,
      "tÃ©r": 1700,
      "ppe": 1701,
      "ĠMme": 1702,
      "era": 1703,
      "ande": 1704,
      "ari": 1705,
      "armes": 1706,
      "Ġtravers": 1707,
      "Ġayant": 1708,
      "Ġaj": 1709,
      "Ġsix": 1710,
      "ĠCharles": 1711,
      "ĠdonnÃ©": 1712,
      "Ġtard": 1713,
      "ĠNe": 1714,
      "ĠnÃ©cess": 1715,
      "he": 1716,
      "Ġart": 1717,
      "Ġcan": 1718,
      "IS": 1719,
      "ĠTout": 1720,
      "ĠÃĢ": 1721,
      "ĠÃĥ": 1722,
      "Ġsuite": 1723,
      "eff": 1724,
      "Ġ8": 1725,
      "quÃ©": 1726,
      "ĠthÃ©": 1727,
      "inf": 1728,
      "ĠÃ©ch": 1729,
      "Ġchant": 1730,
      "ule": 1731,
      "Ġcapit": 1732,
      "Ġvic": 1733,
      "ave": 1734,
      "Ġavons": 1735,
      "Ġplac": 1736,
      "Ġcinq": 1737,
      "lex": 1738,
      "ras": 1739,
      "Ġvit": 1740,
      "Ġvient": 1741,
      "Ġlivre": 1742,
      "Ġop": 1743,
      "issait": 1744,
      ".,": 1745,
      "quoi": 1746,
      "Ġnul": 1747,
      "Ġdemande": 1748,
      "Ġvenir": 1749,
      "Ġparmi": 1750,
      "avant": 1751,
      "Ġfai": 1752,
      "ĠÂ»": 1753,
      "Ġpal": 1754,
      "elopp": 1755,
      "Ġproc": 1756,
      "Ġtable": 1757,
      "anger": 1758,
      "Ġmouv": 1759,
      "arde": 1760,
      "lais": 1761,
      "Ġnouveau": 1762,
      "Ġdiffic": 1763,
      "Ġmoyen": 1764,
      "Ġvue": 1765,
      "abl": 1766,
      "Ġabs": 1767,
      "Ġchevalier": 1768,
      "ĠconsidÃ©r": 1769,
      "erne": 1770,
      "Ġextr": 1771,
      "Ġfont": 1772,
      "Ġ13": 1773,
      "Ġoccup": 1774,
      "Ġbesoin": 1775,
      "ettres": 1776,
      "Ã¨ce": 1777,
      "off": 1778,
      "ĠdÃ¨s": 1779,
      "Ġgarde": 1780,
      "Î½": 1781,
      "Ġsang": 1782,
      "Ġseigneur": 1783,
      "Ġmoult": 1784,
      "ĠÃ©cl": 1785,
      "Ġten": 1786,
      "ueil": 1787,
      "ĠfrÃ¨re": 1788,
      "Ġexemp": 1789,
      "Al": 1790,
      "Ã¦": 1791,
      "Ġpartic": 1792,
      "Ġaujourd": 1793,
      "Ġseule": 1794,
      "ĠmarÃ©chal": 1795,
      "uelle": 1796,
      "ust": 1797,
      "ĠdÃ©sir": 1798,
      "III": 1799,
      "Ġess": 1800,
      "AR": 1801,
      "Ġform": 1802,
      "Ġdisc": 1803,
      "Ġami": 1804,
      "vers": 1805,
      "agin": 1806,
      "ĠBr": 1807,
      "Ġaller": 1808,
      "ĠQuand": 1809,
      "Ġmatin": 1810,
      "ĠreprÃ©sent": 1811,
      "ĠcrÃ©": 1812,
      "ablement": 1813,
      "Ġestoient": 1814,
      "ĠbientÃ´t": 1815,
      "euses": 1816,
      "action": 1817,
      "Ġforme": 1818,
      "Ġlorsqu": 1819,
      "dit": 1820,
      "ĠÃ©lev": 1821,
      "Ġconnaiss": 1822,
      "oud": 1823,
      "ouis": 1824,
      "Ġtrad": 1825,
      "Ġcompagn": 1826,
      "Ġviol": 1827,
      "ĠrÃ©un": 1828,
      "Ġtroupes": 1829,
      "serv": 1830,
      "Ġconserv": 1831,
      "ĠprÃ©t": 1832,
      "Ġvo": 1833,
      "Ġpaix": 1834,
      "Ġretourn": 1835,
      "Ġcomment": 1836,
      "Ġcombat": 1837,
      "vres": 1838,
      "Ġdame": 1839,
      "nÃ©": 1840,
      "NE": 1841,
      "Ġconstr": 1842,
      "Ġsor": 1843,
      "Ġenfants": 1844,
      "ron": 1845,
      "Ã©rÃªt": 1846,
      "onnÃ©": 1847,
      "Ġaucune": 1848,
      "'_": 1849,
      "Ġprend": 1850,
      "lu": 1851,
      "anche": 1852,
      "Ġconst": 1853,
      "Ġbras": 1854,
      "Ã©b": 1855,
      "ide": 1856,
      "ĠdÃ©li": 1857,
      "Ġbi": 1858,
      "Ġdernier": 1859,
      "Ġrac": 1860,
      "ĠDes": 1861,
      "Ġmarch": 1862,
      "ĠVous": 1863,
      "Ġsorte": 1864,
      "Ġlequel": 1865,
      "onte": 1866,
      "Ġquant": 1867,
      "inaire": 1868,
      "ĠÃ©crit": 1869,
      "Ã§ois": 1870,
      "Ġvert": 1871,
      "Ġques": 1872,
      "iron": 1873,
      "ĠrÃ©publi": 1874,
      "Ġdisait": 1875,
      "ices": 1876,
      "ÏĦ": 1877,
      "ĠdÃ©m": 1878,
      "Ġemb": 1879,
      "ĠhÃ©r": 1880,
      "Ġbataille": 1881,
      "Ġjug": 1882,
      "Ġpop": 1883,
      "etÃ©": 1884,
      "oqu": 1885,
      "tiques": 1886,
      "Ġchac": 1887,
      "Ġsuff": 1888,
      "autÃ©": 1889,
      "Ġimpos": 1890,
      "moi": 1891,
      "Ġ10": 1892,
      "Ġentr": 1893,
      "Ġparticuli": 1894,
      "ER": 1895,
      "ettes": 1896,
      "mir": 1897,
      "ĠSon": 1898,
      "mb": 1899,
      "Ġtravail": 1900,
      "Ġpen": 1901,
      "Ġmarge": 1902,
      "Ã©rieur": 1903,
      "Ã¢ce": 1904,
      "Ġsavoir": 1905,
      "Ġgouvernement": 1906,
      "Ġdur": 1907,
      "ĠdÃ©cl": 1908,
      "Ġlettres": 1909,
      "Ġconseil": 1910,
      "rig": 1911,
      "Angleterre": 1912,
      "ailles": 1913,
      "ĠHen": 1914,
      "otte": 1915,
      "Ġfrapp": 1916,
      "ĠAngl": 1917,
      "Ġbout": 1918,
      "ĠMal": 1919,
      "Ġcourt": 1920,
      "ane": 1921,
      "Ġno": 1922,
      "issement": 1923,
      "Ġlorsque": 1924,
      "Ġlongtemps": 1925,
      "dessus": 1926,
      "lles": 1927,
      "entre": 1928,
      "Ġtourn": 1929,
      "Ġbal": 1930,
      "La": 1931,
      "Ġcoul": 1932,
      "itre": 1933,
      "andis": 1934,
      "ĠrÃ©f": 1935,
      "resse": 1936,
      "hab": 1937,
      "ĠpÃ©n": 1938,
      "ĠFr": 1939,
      "Ġobli": 1940,
      "Ã¨g": 1941,
      "iller": 1942,
      "Ġchef": 1943,
      "Ġcelles": 1944,
      "oche": 1945,
      "Î±": 1946,
      "Ġparl": 1947,
      "Ġsau": 1948,
      "Ġsauv": 1949,
      "Ġ11": 1950,
      "ordre": 1951,
      "oge": 1952,
      "Ġlettre": 1953,
      "Ġavez": 1954,
      "ori": 1955,
      "rice": 1956,
      "ĠAprÃ¨s": 1957,
      "Ġtelle": 1958,
      "Ġpopul": 1959,
      "ris": 1960,
      "emain": 1961,
      "endait": 1962,
      "Ġrou": 1963,
      "rage": 1964,
      "argent": 1965,
      "Ġchemin": 1966,
      "env": 1967,
      "Ġrel": 1968,
      "dire": 1969,
      "Ġton": 1970,
      "ĠIn": 1971,
      "ume": 1972,
      "ĠmÃ©": 1973,
      "Ġpetits": 1974,
      "iqu": 1975,
      "Ġdr": 1976,
      "andre": 1977,
      "Ã¢tre": 1978,
      "quels": 1979,
      "onst": 1980,
      "Ġveux": 1981,
      "ĠcaractÃ¨re": 1982,
      "ĠsÃ©": 1983,
      "Ġfist": 1984,
      "ĠnÃ©g": 1985,
      "amment": 1986,
      "oth": 1987,
      "ĠQue": 1988,
      "Ġautant": 1989,
      "iser": 1990,
      "Ġvieux": 1991,
      "Ġlibert": 1992,
      "Ġpauvre": 1993,
      "Ġchas": 1994,
      "ussit": 1995,
      "Ã©gl": 1996,
      "ĠGu": 1997,
      "ences": 1998,
      "Ġsatis": 1999,
      "Ġtrib": 2000,
      "rÃ©s": 2001,
      "Ġsemble": 2002,
      "Ġsold": 2003,
      "th": 2004,
      "Ġve": 2005,
      "aÃ®tres": 2006,
      "Ġappar": 2007,
      "ÃĪ": 2008,
      "Ġlu": 2009,
      "onie": 2010,
      "Ġmots": 2011,
      "Ġpape": 2012,
      "Ã©tais": 2013,
      "Ġgent": 2014,
      "Ġesc": 2015,
      "....": 2016,
      "asion": 2017,
      "Ġmaintenant": 2018,
      "tier": 2019,
      "ieuse": 2020,
      "ateurs": 2021,
      "iez": 2022,
      "Ġpropre": 2023,
      "Ġennemis": 2024,
      "talie": 2025,
      "Ġcath": 2026,
      "ĠII": 2027,
      "Ã©ric": 2028,
      "uits": 2029,
      "En": 2030,
      "Ġimport": 2031,
      "oritÃ©": 2032,
      "Ã¨le": 2033,
      "oiselle": 2034,
      "Ġsitu": 2035,
      "Ġfa": 2036,
      "ĠCel": 2037,
      "ĠLE": 2038,
      "Ġinv": 2039,
      "endemain": 2040,
      "Ġgrandes": 2041,
      "Ġarmes": 2042,
      "Ġesprit": 2043,
      "Ġ9": 2044,
      "Ãªtres": 2045,
      "ager": 2046,
      "Ġpare": 2047,
      "Ġprinces": 2048,
      "Ġ\"": 2049,
      "irer": 2050,
      "ĠsociÃ©tÃ©": 2051,
      "ible": 2052,
      "oires": 2053,
      "Ġus": 2054,
      "ode": 2055,
      "elon": 2056,
      "Ã¨te": 2057,
      "Ġamis": 2058,
      "Ġcur": 2059,
      "arch": 2060,
      "fort": 2061,
      "rant": 2062,
      "Ġvenait": 2063,
      "?Â»": 2064,
      "Ġjoie": 2065,
      ".--_": 2066,
      "Ġtri": 2067,
      "oici": 2068,
      "erÃ§": 2069,
      "Ġvain": 2070,
      "urer": 2071,
      "Ġplut": 2072,
      "Ġmet": 2073,
      "ĠpoÃ©s": 2074,
      "Ġretour": 2075,
      "ĠÃ©m": 2076,
      "ĠÃ©tat": 2077,
      "Ġir": 2078,
      "pris": 2079,
      "ĠprÃ©v": 2080,
      "Ġmit": 2081,
      "ĠVenise": 2082,
      "olÃ©on": 2083,
      "honneur": 2084,
      "ument": 2085,
      "Ġrecev": 2086,
      "rive": 2087,
      "Ġmalheure": 2088,
      "phin": 2089,
      "Am": 2090,
      "erce": 2091,
      "Ġtroub": 2092,
      "lier": 2093,
      "Ġaccomp": 2094,
      "ience": 2095,
      "Ġroute": 2096,
      "oid": 2097,
      "ĠLouis": 2098,
      "Ġchevaliers": 2099,
      "Ġlaisser": 2100,
      "Ġfallait": 2101,
      "Ġvill": 2102,
      "ĠrÃ©publique": 2103,
      "Ġafin": 2104,
      "Ġpersonnes": 2105,
      "Ġcontinu": 2106,
      "Et": 2107,
      "Ġdoc": 2108,
      "ĠcÅĵur": 2109,
      "ĠtÃ©m": 2110,
      "ĠTr": 2111,
      "Ġpieds": 2112,
      "Ġdoi": 2113,
      "erc": 2114,
      "Ġvin": 2115,
      "ĠvoilÃł": 2116,
      "Ġdites": 2117,
      "ĠReine": 2118,
      "az": 2119,
      "itique": 2120,
      "tie": 2121,
      "tice": 2122,
      "Ġsecond": 2123,
      "IN": 2124,
      "Âº": 2125,
      "Ã©qu": 2126,
      "ĠmÃ©r": 2127,
      "iennes": 2128,
      "enÃ©": 2129,
      "ĠNapolÃ©on": 2130,
      "Ġbord": 2131,
      "ĠPuis": 2132,
      "Åĵu": 2133,
      "ĠannÃ©es": 2134,
      "euf": 2135,
      "prouv": 2136,
      "Ġposs": 2137,
      "Ġpourtant": 2138,
      "Ġcommence": 2139,
      "?...": 2140,
      "tiv": 2141,
      "auphin": 2142,
      "histoire": 2143,
      "ĠTh": 2144,
      "ĠgrÃ¢ce": 2145,
      "Ġprojet": 2146,
      "ĠplutÃ´t": 2147,
      "Ġnation": 2148,
      "ĠgoÃ»t": 2149,
      "ĠSa": 2150,
      "ĠmaÃ®tres": 2151,
      "ames": 2152,
      "arm": 2153,
      ",Â»": 2154,
      "Ġmeill": 2155,
      "ĠQuel": 2156,
      "Ġensuite": 2157,
      "UR": 2158,
      "Ġcardin": 2159,
      "Ġtend": 2160,
      "ĠÃ©criv": 2161,
      ".âĢĶ": 2162,
      "ĠcitÃ©": 2163,
      "less": 2164,
      "ĠlittÃ©r": 2165,
      "In": 2166,
      "Ġsouvenir": 2167,
      "arer": 2168,
      "ĠMadame": 2169,
      "euve": 2170,
      "Ġtir": 2171,
      "ĠBl": 2172,
      "Ã©cu": 2173,
      "ĠpassÃ©": 2174,
      "ĠdÃ©g": 2175,
      "gan": 2176,
      "oiss": 2177,
      "Ã§ait": 2178,
      "Ġcontraire": 2179,
      "ĠdÃ©velopp": 2180,
      "Ġporter": 2181,
      "ĠchÃ¢te": 2182,
      "Ġreti": 2183,
      "ĠdÃ®": 2184,
      "ĠmalgrÃ©": 2185,
      "port": 2186,
      "Ġnouvelles": 2187,
      "auche": 2188,
      "Ġautour": 2189,
      "Ġmariage": 2190,
      "ĠCependant": 2191,
      "Ġallait": 2192,
      "ude": 2193,
      "ĠY": 2194,
      "Ġfou": 2195,
      "Ġanim": 2196,
      "Ġdonna": 2197,
      "ĠrÃ©pondit": 2198,
      "Ġmauvais": 2199,
      "Ch": 2200,
      "itiÃ©": 2201,
      "Ġenfant": 2202,
      "Ġvoulait": 2203,
      "Ġsait": 2204,
      "ital": 2205,
      "ĠrÃª": 2206,
      "Ġrue": 2207,
      "ĠcÃ©l": 2208,
      "atique": 2209,
      "Ġcit": 2210,
      "Ġpublic": 2211,
      "ĠLA": 2212,
      "isation": 2213,
      "rier": 2214,
      "ogne": 2215,
      "Ġdoul": 2216,
      "Ġbour": 2217,
      "Ġlivres": 2218,
      "istr": 2219,
      "ĠAnglais": 2220,
      "Ġmas": 2221,
      "Ã¨rement": 2222,
      "Ġajout": 2223,
      "anqu": 2224,
      "Ġbruit": 2225,
      "Ġdivers": 2226,
      "Ġindi": 2227,
      "Ã©rer": 2228,
      "Ġquelle": 2229,
      "Ġpriv": 2230,
      "Ġpremiers": 2231,
      "Ġemploy": 2232,
      "Ġsuc": 2233,
      "chi": 2234,
      "Ġos": 2235,
      "LLE": 2236,
      "inter": 2237,
      "Ġservice": 2238,
      "ĠDauphin": 2239,
      "ots": 2240,
      "ĠpoÃ«": 2241,
      "Ġrefus": 2242,
      "ombre": 2243,
      "Ã©ge": 2244,
      "erait": 2245,
      "Ġmalade": 2246,
      "Ġut": 2247,
      "ini": 2248,
      "Ġeng": 2249,
      "cul": 2250,
      "Ã©ci": 2251,
      "Ġlangue": 2252,
      "ĠsuccÃ¨s": 2253,
      "istre": 2254,
      "Ġtandis": 2255,
      "ĠrÃ©d": 2256,
      "Ġinstr": 2257,
      "Ã©nitiens": 2258,
      "Î¿": 2259,
      "Ġlev": 2260,
      "iennent": 2261,
      "Ġprit": 2262,
      "aval": 2263,
      "ĠsÃ»": 2264,
      "olution": 2265,
      "OR": 2266,
      "TI": 2267,
      "ĠZ": 2268,
      "Ġpossible": 2269,
      "Ġsil": 2270,
      "ontÃ©": 2271,
      "Ġrepos": 2272,
      "Ġcroire": 2273,
      "Ġchacun": 2274,
      "Ġvoulu": 2275,
      "spagne": 2276,
      "Ġmouvement": 2277,
      "Ġavoient": 2278,
      "Ġred": 2279,
      "Ãªque": 2280,
      "Les": 2281,
      "atta": 2282,
      "tine": 2283,
      "ani": 2284,
      "ication": 2285,
      "ĠparaÃ®t": 2286,
      "Ã®t": 2287,
      "Ġnob": 2288,
      "Ġhuit": 2289,
      "eusement": 2290,
      "Ġciv": 2291,
      "uses": 2292,
      "Ġdestin": 2293,
      "ĠFranÃ§ais": 2294,
      "ĠlibertÃ©": 2295,
      "Ġtort": 2296,
      "Ġroyaume": 2297,
      "ussitÃ´t": 2298,
      "Ġait": 2299,
      "ilos": 2300,
      "af": 2301,
      ",--": 2302,
      "Ah": 2303,
      "Ġsout": 2304,
      "Ġamour": 2305,
      "tor": 2306,
      "Ġprovin": 2307,
      "Ã´le": 2308,
      "tait": 2309,
      "oindre": 2310,
      "ĠarmÃ©e": 2311,
      "Ã©li": 2312,
      "Ġbonheur": 2313,
      "Ġvilles": 2314,
      "ĠauprÃ¨s": 2315,
      "Ġpron": 2316,
      "Ġplan": 2317,
      "Ġcompte": 2318,
      "onti": 2319,
      "occup": 2320,
      "Ġsentiment": 2321,
      "Ġtenir": 2322,
      "itation": 2323,
      "ĠvÃ©ritÃ©": 2324,
      "Ġlendemain": 2325,
      "ouch": 2326,
      "ĠÃ©poque": 2327,
      "Ġcirconst": 2328,
      "Ġpalais": 2329,
      "Ġcul": 2330,
      "ĠbÃ¢": 2331,
      "ope": 2332,
      "ĠsÃ©ri": 2333,
      "ĠComme": 2334,
      "ographie": 2335,
      "aves": 2336,
      "illet": 2337,
      "ĠÃ©gl": 2338,
      "esses": 2339,
      "Ġdivis": 2340,
      "Ġpouss": 2341,
      "asser": 2342,
      "Ġchercher": 2343,
      "Ã¨ve": 2344,
      "Ġoubli": 2345,
      "Ġdim": 2346,
      "oss": 2347,
      "ivers": 2348,
      "Ã©glise": 2349,
      "oÃ¯": 2350,
      "enti": 2351,
      "ĠprÃ©f": 2352,
      "ilosoph": 2353,
      "enc": 2354,
      "Ã©cut": 2355,
      "rÃ©ti": 2356,
      "Vous": 2357,
      "ĠEnfin": 2358,
      "Ġtre": 2359,
      "Ġbut": 2360,
      "Ġchamp": 2361,
      "ĠÃ©tant": 2362,
      "Ġloi": 2363,
      "Ġgre": 2364,
      "ige": 2365,
      "Ġgenre": 2366,
      "ias": 2367,
      "Ġligne": 2368,
      "one": 2369,
      "lie": 2370,
      "olie": 2371,
      "Ġsommes": 2372,
      "Ġcents": 2373,
      "Ġprot": 2374,
      "Ã©cri": 2375,
      "Ġtent": 2376,
      "Ġtromp": 2377,
      "?--": 2378,
      "EN": 2379,
      "cles": 2380,
      "chev": 2381,
      "ĠXV": 2382,
      "Ġentend": 2383,
      "ĠdÃ©couv": 2384,
      "Ġparle": 2385,
      "oise": 2386,
      "bres": 2387,
      "Ġparoles": 2388,
      "Ġarm": 2389,
      "ĠÃªtes": 2390,
      "ĠentiÃ¨re": 2391,
      "ĠHenri": 2392,
      "oue": 2393,
      "ĠAv": 2394,
      "Ã©tat": 2395,
      "auteur": 2396,
      "ĠCH": 2397,
      "Ġprob": 2398,
      "Ã©rieure": 2399,
      "Ġaim": 2400,
      "Ġrappel": 2401,
      "ls": 2402,
      "Ġdemi": 2403,
      "avaient": 2404,
      "Ġtrouvait": 2405,
      "ĠderniÃ¨re": 2406,
      "pir": 2407,
      "Ġvas": 2408,
      "Ġnobles": 2409,
      "Ġlog": 2410,
      "Ġpours": 2411,
      "ĠSe": 2412,
      "Ġ20": 2413,
      "Ġsuivant": 2414,
      "ĠchÃ¢teau": 2415,
      "Ġfoi": 2416,
      "issant": 2417,
      "Ġvoulut": 2418,
      "Ġrap": 2419,
      "Ġfortune": 2420,
      "Ġrempl": 2421,
      "Ġrent": 2422,
      "ection": 2423,
      "lice": 2424,
      "Ġreine": 2425,
      "Ġpourquoi": 2426,
      "Ġblanc": 2427,
      "io": 2428,
      "Ġram": 2429,
      "Ġdisp": 2430,
      "Ġgouvern": 2431,
      "Ġnoir": 2432,
      "Ġobt": 2433,
      "ivid": 2434,
      "Ġtrouva": 2435,
      "Â¨": 2436,
      "Ġciel": 2437,
      "oll": 2438,
      "ĠBret": 2439,
      "Ġfaite": 2440,
      "Ġpont": 2441,
      "ribu": 2442,
      "Ġquestion": 2443,
      "Ġbe": 2444,
      "Ġdevoir": 2445,
      "Ġcours": 2446,
      "ĠBourg": 2447,
      "yr": 2448,
      "Ġnour": 2449,
      "Ġpeuvent": 2450,
      "Ġsole": 2451,
      "Ġparfait": 2452,
      "lem": 2453,
      "Ġpourrait": 2454,
      "istor": 2455,
      "ĠOr": 2456,
      "Ġexemple": 2457,
      "ĠFranÃ§ois": 2458,
      "ĠRob": 2459,
      "Ġprofond": 2460,
      "Ġsatisf": 2461,
      "Qu": 2462,
      "Ġchevaux": 2463,
      "Ġhors": 2464,
      "Ã´tel": 2465,
      "ards": 2466,
      "Ġgarn": 2467,
      "cÃ©": 2468,
      "Ã©dr": 2469,
      "Ġpartir": 2470,
      "Ġdroite": 2471,
      "Ġcardinal": 2472,
      "ys": 2473,
      "Ã¨de": 2474,
      "Ġmarche": 2475,
      "Ġpassage": 2476,
      "Ġrais": 2477,
      "Ġamb": 2478,
      "Ġbless": 2479,
      "ĠVÃ©nitiens": 2480,
      "Ġdemander": 2481,
      "Ġselon": 2482,
      "ĠmÃªmes": 2483,
      "Ġoffici": 2484,
      "Ġobserv": 2485,
      "Ġfourn": 2486,
      "acle": 2487,
      "Ġfigure": 2488,
      "ĠRod": 2489,
      "Ġfaits": 2490,
      "Ġcru": 2491,
      "ric": 2492,
      "ĠFo": 2493,
      "ĠpÃ©ri": 2494,
      "Ġ&": 2495,
      "Ġcampagne": 2496,
      "ime": 2497,
      "Ġgauche": 2498,
      "Ġparties": 2499,
      "Ġair": 2500,
      "ĠmÃ©l": 2501,
      "Ġpi": 2502,
      "Ġservir": 2503,
      "Ġfen": 2504,
      "ĠcathÃ©dr": 2505,
      "ĠfrÃ©": 2506,
      "Ġfirent": 2507,
      "liqu": 2508,
      "Ġpasse": 2509,
      "hum": 2510,
      "ĠchrÃ©ti": 2511,
      "Ġsept": 2512,
      "ĠpoÃ©sie": 2513,
      "Ġfonc": 2514,
      "ĠAd": 2515,
      "Ġexist": 2516,
      "crit": 2517,
      "Ġfaites": 2518,
      "oeur": 2519,
      "Ġpor": 2520,
      "dif": 2521,
      "Ġtal": 2522,
      "Ġsem": 2523,
      "insi": 2524,
      "Ãªter": 2525,
      "prise": 2526,
      "erci": 2527,
      "Ġrob": 2528,
      "arc": 2529,
      "Ġconqu": 2530,
      "Ã®le": 2531,
      "ĠderriÃ¨re": 2532,
      "AP": 2533,
      "rique": 2534,
      "aissance": 2535,
      "eue": 2536,
      "Ã¨nes": 2537,
      "cre": 2538,
      "aite": 2539,
      "Ġparv": 2540,
      "Ã§ons": 2541,
      "Ġphilosoph": 2542,
      "Ġfilles": 2543,
      "Ġatte": 2544,
      "gu": 2545,
      "ĠVal": 2546,
      "Ġquelquefois": 2547,
      "ĠvÃ©rit": 2548,
      "eurent": 2549,
      "rim": 2550,
      "ĠtrouvÃ©": 2551,
      "ĠintÃ©rÃªt": 2552,
      "reux": 2553,
      "Ġnot": 2554,
      "illon": 2555,
      "Ġsignif": 2556,
      "Ġsoleil": 2557,
      "ands": 2558,
      "Ġensemble": 2559,
      "mbre": 2560,
      "Ġend": 2561,
      "Ġdemanda": 2562,
      "Ġvoud": 2563,
      "orme": 2564,
      "Ġhas": 2565,
      "ive": 2566,
      "Ã¢ge": 2567,
      "Ġsecours": 2568,
      "Ġarrive": 2569,
      "Ġrecher": 2570,
      "iner": 2571,
      "Ġfoule": 2572,
      "Ġnav": 2573,
      "isc": 2574,
      "Ġsimple": 2575,
      "Ġquin": 2576,
      "Ġrois": 2577,
      "ĠpensÃ©e": 2578,
      "Ġfix": 2579,
      "ĠdÃ©tail": 2580,
      "ĠdÃ©tr": 2581,
      "Ġopp": 2582,
      "itution": 2583,
      "Ġcab": 2584,
      "Ġadmir": 2585,
      "Ġcertain": 2586,
      "Ġphy": 2587,
      "vement": 2588,
      "rement": 2589,
      "quelles": 2590,
      "teur": 2591,
      "Ġaffaires": 2592,
      "ront": 2593,
      "Ġlect": 2594,
      "rible": 2595,
      "Ġposition": 2596,
      "ĠdÃ©clar": 2597,
      "ĠXI": 2598,
      "inte": 2599,
      "ĠAh": 2600,
      "Ġfaisant": 2601,
      "ĠguÃ¨re": 2602,
      "Un": 2603,
      "Ġmag": 2604,
      "usement": 2605,
      "emment": 2606,
      "ĠdÃ©sign": 2607,
      "ro": 2608,
      "enue": 2609,
      "Ġta": 2610,
      "Ã¢me": 2611,
      "ĠMon": 2612,
      "ĠIII": 2613,
      "Ġcommerce": 2614,
      "ĠIV": 2615,
      "Ġ25": 2616,
      "Ġquar": 2617,
      "Ġsomme": 2618,
      "Ġrang": 2619,
      "appel": 2620,
      "IT": 2621,
      "bourg": 2622,
      "ĠprÃ©sence": 2623,
      "Ġvoyage": 2624,
      "Ġanglais": 2625,
      "Ġpuissance": 2626,
      "ĠdÃ©cid": 2627,
      "clam": 2628,
      "ĠpiÃ¨ce": 2629,
      "ĠmÃ©t": 2630,
      "emoiselle": 2631,
      "Ġphot": 2632,
      "Ġcaval": 2633,
      "ĠidÃ©es": 2634,
      "omment": 2635,
      "ÏĤ": 2636,
      "Ġfaute": 2637,
      "Ġdisant": 2638,
      "ĠXX": 2639,
      "Ġconfi": 2640,
      "Ġseconde": 2641,
      "Ġsemblait": 2642,
      "ĠMa": 2643,
      "ĠDu": 2644,
      "Ġheureux": 2645,
      "Ġface": 2646,
      "ĠLors": 2647,
      "Ġsoldats": 2648,
      "erg": 2649,
      "ĠfÃ©": 2650,
      "Ġprix": 2651,
      "ĠnommÃ©": 2652,
      "Ġaband": 2653,
      "ussent": 2654,
      "rages": 2655,
      "Ġmoyens": 2656,
      "Ġfid": 2657,
      "pect": 2658,
      "ilippe": 2659,
      "Ġdir": 2660,
      "Ġperdu": 2661,
      "ouverte": 2662,
      "Oui": 2663,
      "esc": 2664,
      "aie": 2665,
      "rip": 2666,
      "Ġvenu": 2667,
      "Ġmessires": 2668,
      "Ġfus": 2669,
      "rif": 2670,
      "ademoiselle": 2671,
      "Ġ30": 2672,
      "rup": 2673,
      "ita": 2674,
      "ĠAinsi": 2675,
      "Ġpartout": 2676,
      "uments": 2677,
      "Ġnoble": 2678,
      "ides": 2679,
      "Ġjusques": 2680,
      "000": 2681,
      "ĠprÃ©cÃ©d": 2682,
      "Emp": 2683,
      "ĠaussitÃ´t": 2684,
      "Ġgloire": 2685,
      "Ġdispar": 2686,
      "ĠcomplÃ¨": 2687,
      "ourt": 2688,
      "ĠCons": 2689,
      "Ġlois": 2690,
      "Ġchang": 2691,
      "Ġsalle": 2692,
      "ĠnÃ©cessaire": 2693,
      "Â«": 2694,
      "tellig": 2695,
      "Ġpierre": 2696,
      "Ġtrente": 2697,
      "Ã©dition": 2698,
      "Ġmalad": 2699,
      "ĠespÃ¨ce": 2700,
      "Îµ": 2701,
      "eli": 2702,
      "ertes": 2703,
      "con": 2704,
      "roy": 2705,
      "ĠPl": 2706,
      "Ġtitre": 2707,
      "bl": 2708,
      "ry": 2709,
      "exc": 2710,
      "ĠconsÃ©qu": 2711,
      "Ġrecomm": 2712,
      "chait": 2713,
      "Ġordre": 2714,
      "yse": 2715,
      "enus": 2716,
      "urope": 2717,
      "Ġhonn": 2718,
      "enn": 2719,
      "Â».": 2720,
      "ĠFlor": 2721,
      "ĠÃ©prouv": 2722,
      "Ġ+": 2723,
      "Ġdisting": 2724,
      "ĠmÃ©dec": 2725,
      "ĠfaÃ§on": 2726,
      "oÃ¹": 2727,
      "eul": 2728,
      "Ġjardin": 2729,
      "ĠrÃ©sist": 2730,
      "nous": 2731,
      "Ġbelles": 2732,
      "ception": 2733,
      "Ġem": 2734,
      "Ġrav": 2735,
      "orter": 2736,
      "ĠgÃ©nie": 2737,
      "auss": 2738,
      "bÃ©": 2739,
      "Ġuns": 2740,
      "ĠÃ©galement": 2741,
      "luence": 2742,
      "aller": 2743,
      "Ġlibre": 2744,
      "Ġmesure": 2745,
      "Ġvisage": 2746,
      "bes": 2747,
      "ules": 2748,
      "isÃ©": 2749,
      "ĠÃ§a": 2750,
      "OL": 2751,
      "riers": 2752,
      "idi": 2753,
      "Mais": 2754,
      "Ġimagin": 2755,
      "Ġterr": 2756,
      "Ġpolitique": 2757,
      "Espagne": 2758,
      "mont": 2759,
      "Ġdames": 2760,
      "ilement": 2761,
      "Ġplup": 2762,
      "Ġplupart": 2763,
      "ĠCl": 2764,
      "Ġdouce": 2765,
      "Ġinstant": 2766,
      "inion": 2767,
      "ignes": 2768,
      "ainement": 2769,
      "Ġlongue": 2770,
      "Ġmessire": 2771,
      "ĠÃ¢ge": 2772,
      "Italie": 2773,
      "han": 2774,
      "rons": 2775,
      "Ġded": 2776,
      "ĠMonsieur": 2777,
      "ayant": 2778,
      "Ġobjet": 2779,
      "ĠconnaÃ®tre": 2780,
      "oe": 2781,
      "ares": 2782,
      "orable": 2783,
      "Ġsing": 2784,
      "agnes": 2785,
      "lever": 2786,
      "Ġpetites": 2787,
      "ĠPhilippe": 2788,
      "Ġmusique": 2789,
      "eÃ»t": 2790,
      "eries": 2791,
      "lec": 2792,
      "ES": 2793,
      "tat": 2794,
      "ĠfranÃ§aise": 2795,
      "Ġorig": 2796,
      "voy": 2797,
      "Ġlut": 2798,
      "ener": 2799,
      "Ġaccord": 2800,
      "Ġeffort": 2801,
      "Ġchois": 2802,
      "ĠPierre": 2803,
      "onseigneur": 2804,
      "ĠGuill": 2805,
      "ĠRobert": 2806,
      "Ġenviron": 2807,
      "ouill": 2808,
      "quement": 2809,
      "Ġpersonn": 2810,
      "Ġtermin": 2811,
      "Ġsoin": 2812,
      "Ġach": 2813,
      "Ġtransport": 2814,
      "Î¹": 2815,
      "Ġmagn": 2816,
      "Ġparaiss": 2817,
      "Ã´te": 2818,
      "ssent": 2819,
      "avantage": 2820,
      "gea": 2821,
      "Ġcondam": 2822,
      "iÃ©s": 2823,
      "Ġordres": 2824,
      "Ġpeur": 2825,
      "Ġchefs": 2826,
      "Ġspect": 2827,
      "ĠpiÃ¨ces": 2828,
      "let": 2829,
      "Ã©min": 2830,
      "ĠAlors": 2831,
      "Ġcinqu": 2832,
      "time": 2833,
      "ĠSur": 2834,
      "ĠQui": 2835,
      "Ġdescend": 2836,
      "Ġpren": 2837,
      "Ġreprit": 2838,
      "ĠsÃ©par": 2839,
      "Ã©ration": 2840,
      "ignor": 2841,
      "Ġcens": 2842,
      "Ġgagn": 2843,
      "Ġpein": 2844,
      "OU": 2845,
      "Ġattend": 2846,
      "Non": 2847,
      "ĠCor": 2848,
      "ĠidÃ©e": 2849,
      "cha": 2850,
      "Ġvivre": 2851,
      "tim": 2852,
      "Â»,": 2853,
      "Ġregret": 2854,
      "chesse": 2855,
      "Ġsortir": 2856,
      "Ġlumi": 2857,
      "ocher": 2858,
      "quet": 2859,
      "ĠSes": 2860,
      "ĠPendant": 2861,
      "Ġmilli": 2862,
      "ennemi": 2863,
      "ĠreÃ§u": 2864,
      "Ġrespect": 2865,
      "eng": 2866,
      "Ġfati": 2867,
      "ĠÃ¢me": 2868,
      "ĠmÃ©m": 2869,
      "osse": 2870,
      "Ġprisonn": 2871,
      "Ġrecevoir": 2872,
      "Ġsouver": 2873,
      "Ġmai": 2874,
      "Ġentendre": 2875,
      "ĠbrÃ»": 2876,
      "Ġjustice": 2877,
      "ĠFrÃ©d": 2878,
      "ĠcathÃ©drale": 2879,
      "ville": 2880,
      "alog": 2881,
      "aces": 2882,
      "ĠÃ©trang": 2883,
      "ĠdÃ»": 2884,
      "Ġpard": 2885,
      "avez": 2886,
      "uns": 2887,
      "Ġretrouv": 2888,
      "Ms": 2889,
      "Ġmett": 2890,
      "ĠprÃ©par": 2891,
      "Ġentrer": 2892,
      "Ġcess": 2893,
      "Ġsyst": 2894,
      "Ġsilence": 2895,
      "mÃªmes": 2896,
      "oigne": 2897,
      "ardi": 2898,
      "ĠXIII": 2899,
      "ott": 2900,
      "idÃ©e": 2901,
      "Ġcolon": 2902,
      "arriv": 2903,
      "Ã©ra": 2904,
      "Ã©rique": 2905,
      "usion": 2906,
      "Ġjur": 2907,
      "ident": 2908,
      "alem": 2909,
      "Ġcoups": 2910,
      "Ce": 2911,
      "Ġtoi": 2912,
      "Ã©toit": 2913,
      "Ġsentiments": 2914,
      "val": 2915,
      "yle": 2916,
      "ĠÂ«--": 2917,
      "Ġcharm": 2918,
      "Ã©tr": 2919,
      "ĠÃ©clat": 2920,
      "ĠFrÃ©dÃ©ric": 2921,
      "aime": 2922,
      "ĠÃ©d": 2923,
      "Ġchat": 2924,
      "eb": 2925,
      "Ġsen": 2926,
      "Ġcach": 2927,
      "Ã©rÃ©": 2928,
      "Ġhabitu": 2929,
      "Ġvillage": 2930,
      "Monsieur": 2931,
      "Ġgrav": 2932,
      "Ġguer": 2933,
      "Ġdon": 2934,
      "Ġput": 2935,
      "tionn": 2936,
      "ouse": 2937,
      "rire": 2938,
      "Ġrad": 2939,
      "Ġvertu": 2940,
      "Ġsituation": 2941,
      "ĠfrÃ©qu": 2942,
      "Ġbons": 2943,
      "Ġfront": 2944,
      "Ġhaute": 2945,
      "oureux": 2946,
      "gyp": 2947,
      "Ġpress": 2948,
      "aindre": 2949,
      "Ġz": 2950,
      "itaire": 2951,
      "Ġremarqu": 2952,
      "ĠthÃ©Ã¢tre": 2953,
      "Ġ;": 2954,
      "ĠPlus": 2955,
      "Ġforte": 2956,
      "ĠRodin": 2957,
      "ĠFlandre": 2958,
      "Ġaccompagn": 2959,
      "Ġtranqu": 2960,
      "AL": 2961,
      "Or": 2962,
      "ĠrÃ´le": 2963,
      "Ġparole": 2964,
      "oulez": 2965,
      "ermain": 2966,
      "ĠrÃ©cit": 2967,
      "da": 2968,
      "Ġru": 2969,
      "termin": 2970,
      "Ġsexuel": 2971,
      "aigne": 2972,
      "Ġmand": 2973,
      "Ġtroubad": 2974,
      "euvre": 2975,
      "org": 2976,
      "Ġlesquels": 2977,
      "Ġhistor": 2978,
      "Ġindivid": 2979,
      "Ġanciens": 2980,
      ".\"": 2981,
      "cer": 2982,
      "ĠAm": 2983,
      "ĠDites": 2984,
      "ĠrÃ©sult": 2985,
      "yst": 2986,
      "Ġcos": 2987,
      "tien": 2988,
      "outer": 2989,
      "Ġnaturelle": 2990,
      "ĠÃ©tab": 2991,
      "Ġmaisons": 2992,
      "tesse": 2993,
      "Ġminist": 2994,
      "Ġhasard": 2995,
      "geois": 2996,
      "Ġpapier": 2997,
      "cessi": 2998,
      "Ġfroid": 2999,
      "oncer": 3000,
      "othÃ¨": 3001,
      "ison": 3002,
      "oyez": 3003,
      "Ġalli": 3004,
      "Ġ21": 3005,
      "ĠdÃ©n": 3006,
      "Ã©ro": 3007,
      "Ġbonnes": 3008,
      "Ġimpossible": 3009,
      "Ġlaisse": 3010,
      "ĠmÃª": 3011,
      "Ġmaj": 3012,
      "Ġsoi": 3013,
      "Ġard": 3014,
      "alitÃ©s": 3015,
      "Ãªcher": 3016,
      "Ġprison": 3017,
      "Ġmalheureux": 3018,
      "isse": 3019,
      "ĠAb": 3020,
      "Ġpouvaient": 3021,
      "cident": 3022,
      "Ġquarante": 3023,
      "Ġois": 3024,
      "Ã§ant": 3025,
      "Ġplein": 3026,
      "embre": 3027,
      "Ġdifficile": 3028,
      "ouer": 3029,
      "Ġvais": 3030,
      "Ġpassion": 3031,
      "Ġcouvert": 3032,
      "Ġparc": 3033,
      "Ġarch": 3034,
      "Ġportes": 3035,
      "Ġministre": 3036,
      "ĠPheli": 3037,
      "ĠscÃ¨ne": 3038,
      "Ġfaveur": 3039,
      "Ġpou": 3040,
      "Ġcontemp": 3041,
      "ray": 3042,
      "Ġvent": 3043,
      "Ġsolitude": 3044,
      "Ġbarb": 3045,
      "aulois": 3046,
      "ĠJac": 3047,
      "entend": 3048,
      "ĠnÃ¨g": 3049,
      "Ġassi": 3050,
      "Ġpoursuiv": 3051,
      "ueur": 3052,
      "Ġprise": 3053,
      "Ġtriste": 3054,
      "ĠfrÃ¨res": 3055,
      "ĠdÃ©sesp": 3056,
      "Ġgarder": 3057,
      "Ġnu": 3058,
      "estre": 3059,
      "Ġpermis": 3060,
      "Ġcertains": 3061,
      "Ġriche": 3062,
      "Ġvoyant": 3063,
      "Ġsacrif": 3064,
      "ĠÃ©tabl": 3065,
      "Ġquinze": 3066,
      "De": 3067,
      "ieuses": 3068,
      "Ġreligion": 3069,
      "enfant": 3070,
      "cieux": 3071,
      "ts": 3072,
      "Ġbeaux": 3073,
      "Ġhor": 3074,
      "Ġdouze": 3075,
      "Ġsuivre": 3076,
      "ĠprÃ©cip": 3077,
      "Ġbarons": 3078,
      "rine": 3079,
      "Ġcheveux": 3080,
      "Ġsecret": 3081,
      "ĠprÃ©tend": 3082,
      "Ġray": 3083,
      "Ġentour": 3084,
      "arras": 3085,
      "Ġcompagnie": 3086,
      "Ġsinguli": 3087,
      "ino": 3088,
      "Ġrass": 3089,
      "Ġillus": 3090,
      "Ġassembl": 3091,
      "ĠcÃ©lÃ¨": 3092,
      "Ġpuisque": 3093,
      "Ġmanqu": 3094,
      "Ġmourir": 3095,
      "Ġmons": 3096,
      "Ġot": 3097,
      "Ġsexuelle": 3098,
      "Î¯": 3099,
      "ative": 3100,
      "Ġvict": 3101,
      "Ġvite": 3102,
      "Ġalla": 3103,
      "Ġ189": 3104,
      "ĠtroisiÃ¨me": 3105,
      "ĠbeautÃ©": 3106,
      "ĠpÃ©r": 3107,
      "Ġtravaux": 3108,
      "uil": 3109,
      "ars": 3110,
      "usalem": 3111,
      "Ġscul": 3112,
      "ologie": 3113,
      "Ġmurs": 3114,
      "ĠriviÃ¨re": 3115,
      "gent": 3116,
      "ute": 3117,
      "ĠSt": 3118,
      "Ã©rence": 3119,
      "hors": 3120,
      "uve": 3121,
      "Ġneuf": 3122,
      ".-": 3123,
      "Ãītat": 3124,
      "Ġtriomp": 3125,
      "ĠdÃ®ner": 3126,
      "ano": 3127,
      "Ã©tude": 3128,
      "Ġordonn": 3129,
      "Ġvoiture": 3130,
      "Ġvaisse": 3131,
      "alis": 3132,
      "ĠMil": 3133,
      "Ġdiri": 3134,
      "Ġmoit": 3135,
      "ĠdÃ©tails": 3136,
      "ĠCela": 3137,
      "ĠvÃ©ritable": 3138,
      "ĠDur": 3139,
      "assent": 3140,
      "Ġ22": 3141,
      "Ġfaisaient": 3142,
      "Germain": 3143,
      "romp": 3144,
      "Ġw": 3145,
      "Ġrare": 3146,
      "uiss": 3147,
      "ĠVill": 3148,
      "ĠTous": 3149,
      "Ġcontent": 3150,
      "Ġjuste": 3151,
      "ĠBourgogne": 3152,
      "Ġpeuples": 3153,
      "net": 3154,
      "antÃ©": 3155,
      "Ġmagnif": 3156,
      "ME": 3157,
      "ĠmÃ©n": 3158,
      "ĠVinc": 3159,
      "Ġquoique": 3160,
      "her": 3161,
      "Ġlac": 3162,
      "Ġhon": 3163,
      "unes": 3164,
      "Ġnouveaux": 3165,
      "Ã´me": 3166,
      "Ġforces": 3167,
      "asses": 3168,
      "Ġmanif": 3169,
      "uctions": 3170,
      "Ġfaibles": 3171,
      "ĠGuillaume": 3172,
      "Ġdoge": 3173,
      "Ġlarmes": 3174,
      "anti": 3175,
      "Ġquelqu": 3176,
      "Ġbrill": 3177,
      "Ġassur": 3178,
      "Ġorgan": 3179,
      "ĠPhelippe": 3180,
      "Ïģ": 3181,
      "Ġmul": 3182,
      "Ġtenait": 3183,
      "Ġvoyait": 3184,
      "Ġretraite": 3185,
      "ĠpossÃ©d": 3186,
      "Ġdouleur": 3187,
      "ĠbÃ¢ti": 3188,
      "Est": 3189,
      "IE": 3190,
      "iment": 3191,
      "ĠÃ©n": 3192,
      "Ġcourage": 3193,
      "Ġrenf": 3194,
      "Ġrapports": 3195,
      "chement": 3196,
      "resp": 3197,
      "ĠSainte": 3198,
      "pe": 3199,
      "Ġconduite": 3200,
      "Ġphotographie": 3201,
      "Ġdehors": 3202,
      "ĠVoilÃł": 3203,
      "Ġdevaient": 3204,
      "Ġcirconstances": 3205,
      "gypte": 3206,
      "hommes": 3207,
      "iend": 3208,
      "Ġvendre": 3209,
      "Ġdroits": 3210,
      "Ġarriva": 3211,
      "Ġmarquis": 3212,
      "Ġ--Â»": 3213,
      "Ġflotte": 3214,
      "Ġchapelle": 3215,
      "Ġjeunesse": 3216,
      "Ġmemb": 3217,
      "auc": 3218,
      "ĠdÃ©fendre": 3219,
      "Ġgouverneur": 3220,
      "cin": 3221,
      "Ġauquel": 3222,
      "ĠdÃ©d": 3223,
      "Ã´ne": 3224,
      "Ġpassa": 3225,
      "arge": 3226,
      "Ġdonnait": 3227,
      "rimer": 3228,
      "ĠdÃ©l": 3229,
      "Ġdoux": 3230,
      "ĠpremiÃ¨res": 3231,
      "Ġmourut": 3232,
      "AS": 3233,
      "Ġrester": 3234,
      "ĠespÃ©r": 3235,
      "uv": 3236,
      "uste": 3237,
      "Ġaccep": 3238,
      "gÃ©s": 3239,
      "ĠlaissÃ©": 3240,
      "ĠtraitÃ©": 3241,
      "Eh": 3242,
      "nements": 3243,
      "Ġcharge": 3244,
      "Ġ188": 3245,
      "onf": 3246,
      "ĠprÃªt": 3247,
      "Ġpuisse": 3248,
      "Ġfour": 3249,
      "ousse": 3250,
      "Ġoppos": 3251,
      "Ġca": 3252,
      "Ġcad": 3253,
      "ĠCet": 3254,
      "ĠFont": 3255,
      "assad": 3256,
      "Ġ23": 3257,
      "Ġroman": 3258,
      "Ġconfiance": 3259,
      "Ġvoulez": 3260,
      "Ġappelle": 3261,
      "ĠjournÃ©e": 3262,
      "ĠSal": 3263,
      "Ġessay": 3264,
      "Ġsuffis": 3265,
      "Ġcombien": 3266,
      "Ġchapit": 3267,
      "ĠmoitiÃ©": 3268,
      "rist": 3269,
      "ĠÅĵu": 3270,
      "Ġfant": 3271,
      "inÃ©": 3272,
      "Ġmontre": 3273,
      "Ġrencontre": 3274,
      "ĠBer": 3275,
      "Ã¢mes": 3276,
      "Ġouvrage": 3277,
      "Ġsavait": 3278,
      "ĠCan": 3279,
      "ĠaperÃ§": 3280,
      "Ġcentre": 3281,
      "Ġfussent": 3282,
      "ĠLÃł": 3283,
      "Ġbouche": 3284,
      "erve": 3285,
      "Ġconsent": 3286,
      "aÃ®n": 3287,
      "ĠDepuis": 3288,
      "Ġpense": 3289,
      "Ġfil": 3290,
      "Ġtex": 3291,
      "omie": 3292,
      "uir": 3293,
      "orer": 3294,
      "ĠprÃ©sente": 3295,
      "Europe": 3296,
      "On": 3297,
      "sy": 3298,
      "ĠdÃ©termin": 3299,
      "Ġmontrer": 3300,
      "Ġmademoiselle": 3301,
      "Ġfaisoit": 3302,
      "Ġaffaire": 3303,
      "ĠfÃ©min": 3304,
      "Ġnord": 3305,
      "AU": 3306,
      "jour": 3307,
      "ĠintÃ©": 3308,
      "Ġproduit": 3309,
      "Ġjuge": 3310,
      "Ġsculpt": 3311,
      "ĠmÃ©c": 3312,
      "tive": 3313,
      "ĠBelle": 3314,
      "Ġ24": 3315,
      "ĠspÃ©ci": 3316,
      "der": 3317,
      "iteur": 3318,
      "ceau": 3319,
      "ĠMes": 3320,
      "Ġpleine": 3321,
      "ĠÃ©chapp": 3322,
      "ination": 3323,
      "Ġbor": 3324,
      "Ġconj": 3325,
      "Ġentendu": 3326,
      "Ġappart": 3327,
      "agnol": 3328,
      "ĠannÃ©e": 3329,
      "oh": 3330,
      "els": 3331,
      "osc": 3332,
      "agÃ©": 3333,
      "andes": 3334,
      "Ġderniers": 3335,
      "mens": 3336,
      "Ġmonseigneur": 3337,
      "ĠforÃªt": 3338,
      "ĠgarÃ§on": 3339,
      "ministr": 3340,
      "Ġracont": 3341,
      "Ġcommencement": 3342,
      "rin": 3343,
      "Ġdomes": 3344,
      "Ġtirer": 3345,
      "Ġordinaire": 3346,
      "bon": 3347,
      "ĠtÃ©moign": 3348,
      "hÃ´tel": 3349,
      "Ġsoient": 3350,
      "ĠfÃ¢": 3351,
      "oyer": 3352,
      "ĠexÃ©cut": 3353,
      "Ġjournal": 3354,
      "Ġavis": 3355,
      "Ġcommis": 3356,
      "Empereur": 3357,
      "Ġvoici": 3358,
      "ĠAR": 3359,
      "Ġconcl": 3360,
      "Ġdisoit": 3361,
      "Î»": 3362,
      "attend": 3363,
      "ĠreconnaÃ®tre": 3364,
      "ĠnÃ©goci": 3365,
      "._,": 3366,
      "agit": 3367,
      "autant": 3368,
      "Ã©vÃªque": 3369,
      "ĠcolÃ¨re": 3370,
      "Ġgrec": 3371,
      "Ġcous": 3372,
      "ĠtÃ¢": 3373,
      "inet": 3374,
      "avoit": 3375,
      "Ġfleurs": 3376,
      "Ġsecr": 3377,
      "Ã¨tes": 3378,
      "ĠdÃ©ch": 3379,
      "Ã©dic": 3380,
      "ĠMarie": 3381,
      "ates": 3382,
      "atif": 3383,
      "ĠdÃ©lic": 3384,
      "ĠNorm": 3385,
      "Ġimpr": 3386,
      "Ġcertaines": 3387,
      "Ġ190": 3388,
      "Ġdessus": 3389,
      "Ġcivil": 3390,
      "Ġphysi": 3391,
      "ĠlumiÃ¨re": 3392,
      "Ġital": 3393,
      "ĠrÃ¨": 3394,
      "ĠRÃ©g": 3395,
      "Ġbiens": 3396,
      "onnement": 3397,
      "ennes": 3398,
      "idic": 3399,
      "Ġperdre": 3400,
      "Ġpeint": 3401,
      "Ġpun": 3402,
      "lez": 3403,
      "rich": 3404,
      "lique": 3405,
      "Ġstyle": 3406,
      "Ġvinrent": 3407,
      "ĠMilan": 3408,
      "Ne": 3409,
      "arre": 3410,
      "orce": 3411,
      "Ġcesse": 3412,
      "udes": 3413,
      "Ġmembres": 3414,
      "Ġfrancs": 3415,
      "ĠsystÃ¨me": 3416,
      "yn": 3417,
      "Ġsep": 3418,
      "liers": 3419,
      "Ġinut": 3420,
      "annÃ©e": 3421,
      "Ã©cution": 3422,
      "ĠVI": 3423,
      "Ġext": 3424,
      "Ġprote": 3425,
      "assÃ©": 3426,
      "ĠBeau": 3427,
      "Ġdevint": 3428,
      "Ġvieille": 3429,
      "anitÃ©": 3430,
      "arque": 3431,
      "Ġprouv": 3432,
      "ulg": 3433,
      "ultÃ©": 3434,
      "Ġmalheur": 3435,
      "Ġdigne": 3436,
      "ouff": 3437,
      "anne": 3438,
      "arn": 3439,
      "Ġlire": 3440,
      "Ġnoms": 3441,
      "Ġpropri": 3442,
      "Ġnombreux": 3443,
      "ultÃ©s": 3444,
      "Ġhabitants": 3445,
      "hÃ©r": 3446,
      "Ġjusque": 3447,
      "ecture": 3448,
      "Ġsuppos": 3449,
      "Ġcinquante": 3450,
      "entrÃ©e": 3451,
      "ĠDÃ¨s": 3452,
      "aye": 3453,
      "Ġouvrages": 3454,
      "Ġstat": 3455,
      "ĠintÃ©ress": 3456,
      "Ġpoin": 3457,
      "aim": 3458,
      "ercev": 3459,
      "ordinaire": 3460,
      "issaient": 3461,
      "ĠXII": 3462,
      "SE": 3463,
      "Ġlarg": 3464,
      "Ġcler": 3465,
      "Ġmam": 3466,
      "ĠsÃ»r": 3467,
      "Ġtient": 3468,
      "Ġoutre": 3469,
      "Ġbourgeois": 3470,
      "once": 3471,
      "Ġromp": 3472,
      "Ġaura": 3473,
      "ĠVic": 3474,
      "ĠTur": 3475,
      "Ġpenser": 3476,
      "Ġchapeau": 3477,
      "uÃ©": 3478,
      "Ġrace": 3479,
      "liquer": 3480,
      "Ã©rir": 3481,
      "Ġ28": 3482,
      "Ġjouer": 3483,
      "Ġsin": 3484,
      "Ġvig": 3485,
      "ĠdÃ©pl": 3486,
      "Ġcapitaine": 3487,
      "Ġpure": 3488,
      "Ġquart": 3489,
      "Ġfaud": 3490,
      "trod": 3491,
      "Ġtomber": 3492,
      "ĠagrÃ©": 3493,
      "Ġexpos": 3494,
      "Ã©dia": 3495,
      "Ã©las": 3496,
      "ĠmÃ©moire": 3497,
      "entÃ©": 3498,
      "Ġjal": 3499,
      "Ġconvers": 3500,
      "Ġrendu": 3501,
      "ĠÃ©vÃ©": 3502,
      "oÃ®": 3503,
      "ĠÏ": 3504,
      "trait": 3505,
      "ĠrÃ©pand": 3506,
      "anim": 3507,
      "Ġvall": 3508,
      "Ġquitter": 3509,
      "Ġbibli": 3510,
      "ĠConstant": 3511,
      "orde": 3512,
      "orig": 3513,
      "Ġpermet": 3514,
      "ĠmaÃ®tresse": 3515,
      "ril": 3516,
      "Ġmoindre": 3517,
      "Ġpatrie": 3518,
      "ĠSans": 3519,
      "imagin": 3520,
      "Ġterrible": 3521,
      "ellent": 3522,
      "Ġmess": 3523,
      "Ġrire": 3524,
      "Ġinj": 3525,
      "ĠJus": 3526,
      "gue": 3527,
      "enaient": 3528,
      "Ġnov": 3529,
      "ierres": 3530,
      "Ġconsc": 3531,
      "Ġapport": 3532,
      "iant": 3533,
      "Ġfol": 3534,
      "Ġacte": 3535,
      "Ġactes": 3536,
      "Ġmorale": 3537,
      "aurait": 3538,
      "ositÃ©": 3539,
      "ĠAlex": 3540,
      "exist": 3541,
      "ĠtantÃ´t": 3542,
      "Ġdavantage": 3543,
      "ĠNon": 3544,
      "Ġportait": 3545,
      "Ġregarde": 3546,
      "ommage": 3547,
      "Ġmode": 3548,
      "ĠArn": 3549,
      "roi": 3550,
      "tip": 3551,
      "Ġchans": 3552,
      "Ġmanus": 3553,
      "Ġpublique": 3554,
      "Ġsuper": 3555,
      "Ġcouleur": 3556,
      "ĠsÃ©v": 3557,
      "Ġvag": 3558,
      "Ġpolice": 3559,
      "Ġvolup": 3560,
      "ĠarrivÃ©": 3561,
      "acte": 3562,
      "Ġcam": 3563,
      "ĠXIV": 3564,
      "gment": 3565,
      "ĠsiÃ©ge": 3566,
      "ĠgÃ©nÃ©rale": 3567,
      "Ġrevenir": 3568,
      "Ġchastel": 3569,
      "arb": 3570,
      "Ġparfois": 3571,
      "Ġdevenu": 3572,
      "ĠHain": 3573,
      "Ġcoll": 3574,
      "Ġpatri": 3575,
      "ĠdÃ©liv": 3576,
      "CE": 3577,
      "Ġpav": 3578,
      "Ġpot": 3579,
      "Ġquarti": 3580,
      "Ġnum": 3581,
      "Ġsonge": 3582,
      "ĠGre": 3583,
      "Ġmauvaise": 3584,
      "ĠPal": 3585,
      "ĠNos": 3586,
      "ĠvolontÃ©": 3587,
      "ĠobligÃ©": 3588,
      "Ġcer": 3589,
      "quit": 3590,
      "ĠMarc": 3591,
      ");": 3592,
      "ada": 3593,
      "mine": 3594,
      "llem": 3595,
      "intÃ©rÃªt": 3596,
      "Ġ27": 3597,
      "Ġremont": 3598,
      "accord": 3599,
      "Ġsexe": 3600,
      "ĠFlorence": 3601,
      "ĠVincent": 3602,
      "Ġi": 3603,
      "Ġfi": 3604,
      "ĠLond": 3605,
      "Ġhonneur": 3606,
      "Ġpartis": 3607,
      "ĠextrÃªme": 3608,
      "man": 3609,
      "Ġinn": 3610,
      "Ġlaissa": 3611,
      "ĠcommenÃ§a": 3612,
      "Ġsoix": 3613,
      "apt": 3614,
      "Ġconduis": 3615,
      "Ġvictoire": 3616,
      "Ġprog": 3617,
      "ĠdÃ©faut": 3618,
      "Ġcommandement": 3619,
      "Ġmarchand": 3620,
      "osp": 3621,
      "endue": 3622,
      "ĠVoici": 3623,
      "Ã©die": 3624,
      "Ġaime": 3625,
      "Ġmusic": 3626,
      "ĠnÃ¨gres": 3627,
      "otion": 3628,
      "ĠÃ©dif": 3629,
      "ĠdÃ©pos": 3630,
      "Ġcris": 3631,
      "Ġconsac": 3632,
      "Ġadress": 3633,
      "ĠsiÃ¨cles": 3634,
      "udi": 3635,
      "Ġloc": 3636,
      "Ġcli": 3637,
      "Ġchal": 3638,
      "ĠrÃ©pÃ©t": 3639,
      "ĠgÃ©nÃ©raux": 3640,
      "rois": 3641,
      "Ġcop": 3642,
      "Ġbais": 3643,
      "Ġperf": 3644,
      "Ġposses": 3645,
      "tient": 3646,
      "Ġprim": 3647,
      "acer": 3648,
      "ailli": 3649,
      "Ġautrefois": 3650,
      "Ġconven": 3651,
      "Ġtraits": 3652,
      "occasion": 3653,
      "Ġfaible": 3654,
      "aurais": 3655,
      "ĠMau": 3656,
      "aband": 3657,
      "empl": 3658,
      "Ã©cl": 3659,
      "ĠNaples": 3660,
      "Ġis": 3661,
      "ĠparlÃ©": 3662,
      "chÃ©e": 3663,
      "Ġvoyag": 3664,
      "Ġarriver": 3665,
      "Ġprovince": 3666,
      "cte": 3667,
      "dou": 3668,
      "Ġfust": 3669,
      "Art": 3670,
      "Ġanimaux": 3671,
      "guer": 3672,
      "ĠlÃ¨": 3673,
      "Ġpierres": 3674,
      "emens": 3675,
      "rid": 3676,
      "Ġdoivent": 3677,
      "ulte": 3678,
      "erme": 3679,
      "user": 3680,
      "onnÃ©e": 3681,
      "!_": 3682,
      "Ġavent": 3683,
      "atiques": 3684,
      "ĠJÃ©r": 3685,
      "Ġseraient": 3686,
      "Ġfacile": 3687,
      "ĠpoÃ«te": 3688,
      "Ġmorte": 3689,
      "usage": 3690,
      "assi": 3691,
      "estÃ©": 3692,
      "Ġlieux": 3693,
      "Ġseront": 3694,
      "ĠJehan": 3695,
      "Ã©poque": 3696,
      "Ġadop": 3697,
      "Ġescl": 3698,
      "approch": 3699,
      "ĠbÃ©n": 3700,
      "expression": 3701,
      "Ġrobe": 3702,
      "Ġlis": 3703,
      "ĠpÃ¢": 3704,
      "ĠdÃ©ta": 3705,
      "Ġformes": 3706,
      "Ġpropres": 3707,
      "ĠdÃ©part": 3708,
      "Ġattendre": 3709,
      "Ġconnaissance": 3710,
      "Ġdiverses": 3711,
      "ĠrÃ¨gne": 3712,
      "urb": 3713,
      "Ġmurm": 3714,
      "Ġcitoy": 3715,
      "Ġsoixante": 3716,
      "Ġfleuve": 3717,
      "ĠmÃ©rite": 3718,
      "Ġmaladie": 3719,
      "jou": 3720,
      "itaires": 3721,
      "Ġvoie": 3722,
      "ĠMor": 3723,
      "ĠGal": 3724,
      "uites": 3725,
      "Ġprincesse": 3726,
      "TION": 3727,
      "Ã©f": 3728,
      "arche": 3729,
      "indre": 3730,
      "anterie": 3731,
      "Ġenvers": 3732,
      "Ġconstruction": 3733,
      "Ġtes": 3734,
      "olo": 3735,
      "unt": 3736,
      "ĠrÃ©ponse": 3737,
      "Ġenvoi": 3738,
      "Ġhauteur": 3739,
      "Ġabsolu": 3740,
      "Mon": 3741,
      "Oh": 3742,
      "bert": 3743,
      "orÃ©": 3744,
      "Ġbourg": 3745,
      "ĠportÃ©": 3746,
      "Ġsoum": 3747,
      "Ġparut": 3748,
      "cier": 3749,
      "adis": 3750,
      "Ġjoue": 3751,
      "Ġmerveill": 3752,
      "Ġoccasion": 3753,
      "Ġmotif": 3754,
      "ĠpitiÃ©": 3755,
      "tic": 3756,
      "Ġprodig": 3757,
      "Ġsusp": 3758,
      "Ġefforts": 3759,
      "Ġsire": 3760,
      "Ġ29": 3761,
      "ĠdÃ©sert": 3762,
      "Ġouvert": 3763,
      "Ġretourner": 3764,
      "Ġtroubadours": 3765,
      "ym": 3766,
      "Ã©taire": 3767,
      "Ġcrainte": 3768,
      "Ġcraign": 3769,
      "Ġdevenir": 3770,
      "Ã©dÃ©": 3771,
      "Ġmontagnes": 3772,
      "telligence": 3773,
      "Ġtellement": 3774,
      "Ġvont": 3775,
      "ĠdÃ©r": 3776,
      "Ġmoeurs": 3777,
      "Ġpopulation": 3778,
      "ĠCelui": 3779,
      "Ġmir": 3780,
      "Ġchasse": 3781,
      "amme": 3782,
      "ĠAN": 3783,
      "Ġsoud": 3784,
      "ĠdÃ©fense": 3785,
      "Ġcomprendre": 3786,
      "Ġsymp": 3787,
      "Ġmeilleur": 3788,
      "ĠcÃ©r": 3789,
      "ouc": 3790,
      "Ġdel": 3791,
      "ina": 3792,
      "ĠAussi": 3793,
      "Ã©tab": 3794,
      "empire": 3795,
      "Ġempl": 3796,
      "licitÃ©": 3797,
      "ĠreÃ§ut": 3798,
      "Ġsatisfaction": 3799,
      "Ġdedens": 3800,
      "Pour": 3801,
      "Ġdanger": 3802,
      "ision": 3803,
      "Ġvari": 3804,
      "ĠEst": 3805,
      "ĠJacques": 3806,
      "ĠÏĦ": 3807,
      "Ġcat": 3808,
      "estes": 3809,
      "ĠmÃ©pris": 3810,
      "tivitÃ©": 3811,
      "Se": 3812,
      "mma": 3813,
      "vier": 3814,
      "Ġignor": 3815,
      "Ġmyst": 3816,
      "Ġviennent": 3817,
      "Ġridic": 3818,
      "âĢĶ_": 3819,
      "atrice": 3820,
      "Ġcroit": 3821,
      "Ġrestait": 3822,
      "Ġimmense": 3823,
      "AI": 3824,
      "Ġlesquelles": 3825,
      "tron": 3826,
      "Ġconsol": 3827,
      "ĠÃ©pous": 3828,
      "ĠrÃ©serv": 3829,
      "Ġreligieux": 3830,
      "Ġdivision": 3831,
      "Ġtalent": 3832,
      "Ġmanuscrit": 3833,
      "ĠchÃ¢": 3834,
      "otes": 3835,
      "Ġcalme": 3836,
      "Ġgui": 3837,
      "glat": 3838,
      "Ġconditions": 3839,
      "Ã©cria": 3840,
      "Ġradi": 3841,
      "HE": 3842,
      "Ġpais": 3843,
      "aide": 3844,
      "Ġfun": 3845,
      "ĠLÃ©on": 3846,
      "Ġchi": 3847,
      "atience": 3848,
      "iver": 3849,
      "igneurs": 3850,
      "erreur": 3851,
      "ĠchargÃ©": 3852,
      "Ġferme": 3853,
      "Ġprofit": 3854,
      "scur": 3855,
      "andres": 3856,
      "avons": 3857,
      "intÃ©rieur": 3858,
      "Ġvouloir": 3859,
      "ĠimpÃ©ri": 3860,
      "ĠMontglat": 3861,
      "Si": 3862,
      "ĠGau": 3863,
      "ĠdÃ©put": 3864,
      "bilitÃ©": 3865,
      "cad": 3866,
      "Âª": 3867,
      "Ã¨les": 3868,
      "chÃ©s": 3869,
      "Ġgroup": 3870,
      "ĠBour": 3871,
      "Ġdemie": 3872,
      "accomp": 3873,
      "Ġrouge": 3874,
      "ĠFontaine": 3875,
      "QU": 3876,
      "enez": 3877,
      "onge": 3878,
      "euil": 3879,
      "Ġfur": 3880,
      "sych": 3881,
      "Ġmeur": 3882,
      "orge": 3883,
      "Ġprist": 3884,
      "avec": 3885,
      "Ġestre": 3886,
      "Ġobst": 3887,
      "Ġpapa": 3888,
      "Ġdrap": 3889,
      "ĠXIIIe": 3890,
      "Au": 3891,
      "of": 3892,
      "Ġdign": 3893,
      "Ġlim": 3894,
      "ousias": 3895,
      "ĠElles": 3896,
      "ivement": 3897,
      "Ġentra": 3898,
      "Ġpassait": 3899,
      "Ġconnu": 3900,
      "Ġspectacle": 3901,
      "ĠcÃ©lÃ¨bre": 3902,
      "Ġk": 3903,
      "Ġcre": 3904,
      "entions": 3905,
      "ications": 3906,
      "Ġferm": 3907,
      "ĠÂ»--": 3908,
      "odi": 3909,
      "Ġdange": 3910,
      "ĠLiv": 3911,
      "Ġ26": 3912,
      "Ġvivement": 3913,
      "Ġvaleur": 3914,
      "Ġfavor": 3915,
      "Ġveille": 3916,
      "Ġmun": 3917,
      "Ġbran": 3918,
      "sier": 3919,
      "Ġrendit": 3920,
      "ĠÃ©loign": 3921,
      "ĠConstantin": 3922,
      "Ġcuis": 3923,
      "uie": 3924,
      "ĠFer": 3925,
      "ulation": 3926,
      "Ġfrais": 3927,
      "ĠentiÃ¨rement": 3928,
      "housias": 3929,
      "Ġcompar": 3930,
      "Ġpayer": 3931,
      "Ġregarder": 3932,
      "Ġofficiers": 3933,
      "teurs": 3934,
      "ĠsÃ©n": 3935,
      "Ġprud": 3936,
      "Ġauraient": 3937,
      "Ġarti": 3938,
      "Ġexam": 3939,
      "objet": 3940,
      "Ġdoig": 3941,
      "ĠQuelques": 3942,
      "obre": 3943,
      "Ġeurent": 3944,
      "atre": 3945,
      "ĠdÃ©fin": 3946,
      "Ġpauvres": 3947,
      "ome": 3948,
      "Ġcomtesse": 3949,
      "ĠGand": 3950,
      "Ġenvir": 3951,
      "ĠrÃ©pondre": 3952,
      "Ġcapitale": 3953,
      "ĠÃ©levÃ©": 3954,
      "Ġmars": 3955,
      "Ġpuisqu": 3956,
      "ĠmÃ©decin": 3957,
      "respond": 3958,
      "ARE": 3959,
      "rÃ©es": 3960,
      "umes": 3961,
      "vis": 3962,
      "Ġlarge": 3963,
      "ĠbÃ¢t": 3964,
      "Ã©nÃ©r": 3965,
      "glise": 3966,
      "Ġtransf": 3967,
      "ak": 3968,
      "ÃªtÃ©": 3969,
      "ende": 3970,
      "ĠestÃ©": 3971,
      "Ġsigne": 3972,
      "Ġnaturel": 3973,
      "Ġjuillet": 3974,
      "Ġjeter": 3975,
      "Ġvoisin": 3976,
      "Ġcroyait": 3977,
      "uff": 3978,
      "Ġvir": 3979,
      "omn": 3980,
      "illerie": 3981,
      "ĠGaulois": 3982,
      "Ġparfaitement": 3983,
      "Aut": 3984,
      "aj": 3985,
      "ĠMe": 3986,
      "Ġdisposition": 3987,
      "Ġextra": 3988,
      "IÃĪ": 3989,
      "Ïĥ": 3990,
      "ĠPort": 3991,
      "Ġinqui": 3992,
      "ĠEsp": 3993,
      "Ġdouble": 3994,
      "Ġfranch": 3995,
      "ĠcÃ´tÃ©s": 3996,
      "huit": 3997,
      "ĠsÃ©p": 3998,
      "ĠsantÃ©": 3999,
      "Ġchange": 4000,
      "ancer": 4001,
      "Ġtravaill": 4002,
      "ĠLondres": 4003,
      "lant": 4004,
      "Ġmise": 4005,
      "ourir": 4006,
      "Ġchass": 4007,
      "Ġreb": 4008,
      "ĠPol": 4009,
      "emple": 4010,
      "ĠNic": 4011,
      "Ġcouronne": 4012,
      "ĠÃ©lÃ©g": 4013,
      "Ġangl": 4014,
      "Ġcostu": 4015,
      "Ġtaille": 4016,
      "Ġore": 4017,
      "Ġmeisme": 4018,
      "Ġdemeur": 4019,
      "Ġsentir": 4020,
      "Ġcondition": 4021,
      "Ġsujets": 4022,
      "Ġfonctions": 4023,
      "Ġconscience": 4024,
      "ĠCal": 4025,
      "ĠtrÃ©s": 4026,
      "Ġdemain": 4027,
      "Ġpersu": 4028,
      "Ġconfond": 4029,
      "ĠlittÃ©rature": 4030,
      "anisme": 4031,
      "Ġros": 4032,
      "abs": 4033,
      "Ġtels": 4034,
      "vant": 4035,
      "rient": 4036,
      "Ġservi": 4037,
      "ĠFlandres": 4038,
      "ĠMontfort": 4039,
      "Ġsignifie": 4040,
      "Ġdate": 4041,
      "agon": 4042,
      "ĠRomains": 4043,
      "Ġrepouss": 4044,
      "DE": 4045,
      "oine": 4046,
      "Ġrelev": 4047,
      "Ã©dit": 4048,
      "ormation": 4049,
      "Ġscience": 4050,
      "Ġauteurs": 4051,
      "Ġsoeur": 4052,
      "quÃ©e": 4053,
      "tex": 4054,
      "Ġpri": 4055,
      "Ġpassi": 4056,
      "Ġsupr": 4057,
      "ĠQuoi": 4058,
      "Ġmessieurs": 4059,
      "Ġcomprend": 4060,
      "lÃ©e": 4061,
      "inrent": 4062,
      "ĠBel": 4063,
      "Ġdissi": 4064,
      "Ġmanque": 4065,
      "ĠBretagne": 4066,
      "Ġcavalerie": 4067,
      "queue": 4068,
      "Ġdestr": 4069,
      "Ã©tant": 4070,
      "ĠGe": 4071,
      "Ġmarcher": 4072,
      "issements": 4073,
      "Ġsignal": 4074,
      "GAN": 4075,
      "Ġfab": 4076,
      "Ġtendre": 4077,
      "atur": 4078,
      "agement": 4079,
      "seigne": 4080,
      "ĠTal": 4081,
      "ĠChamp": 4082,
      "Ġsuivi": 4083,
      "Ġinconn": 4084,
      "lin": 4085,
      "Ġsage": 4086,
      "Ġtap": 4087,
      "Ġparents": 4088,
      "Ġhonte": 4089,
      "ureur": 4090,
      "Ġcompl": 4091,
      "Ġvive": 4092,
      "ĠpÃ»t": 4093,
      "Ġmati": 4094,
      "ary": 4095,
      "Ġperp": 4096,
      "ĠÃ©crire": 4097,
      "ucation": 4098,
      "ateau": 4099,
      "ĠDurand": 4100,
      "Ġrej": 4101,
      "Ġoct": 4102,
      "ĠBon": 4103,
      "ĠToute": 4104,
      "Ġphras": 4105,
      "Ġprofess": 4106,
      "ĠÃ©trange": 4107,
      "Ġdeff": 4108,
      "Ġlatin": 4109,
      "riche": 4110,
      "ĠDeux": 4111,
      "ĠrÃ©clam": 4112,
      "Ġvraiment": 4113,
      "Ġendroit": 4114,
      "oubli": 4115,
      "oies": 4116,
      "Ġduchesse": 4117,
      "Ġdiss": 4118,
      "Ġterme": 4119,
      "Ġrappelle": 4120,
      "cteur": 4121,
      "ĠlÃ©gÃ¨re": 4122,
      "ĠconsidÃ©rable": 4123,
      "cinq": 4124,
      ".+": 4125,
      "bout": 4126,
      "Ġhaine": 4127,
      "ives": 4128,
      "Ġvenus": 4129,
      "ARELLE": 4130,
      "GANARELLE": 4131,
      "ara": 4132,
      "tembre": 4133,
      "aintes": 4134,
      "Ã©nom": 4135,
      "Ġactu": 4136,
      "Ġsavez": 4137,
      "ĠarrÃªt": 4138,
      "effet": 4139,
      "Esc": 4140,
      "Ġsages": 4141,
      "erai": 4142,
      "Ġgai": 4143,
      "Ġprivil": 4144,
      "hor": 4145,
      "itecture": 4146,
      "ĠItalie": 4147,
      "Ġcrime": 4148,
      "Ġdout": 4149,
      "ĠaoÃ»t": 4150,
      "Ġjoli": 4151,
      "ressions": 4152,
      "ouvre": 4153,
      "onnet": 4154,
      "Ġconsul": 4155,
      "Ġrecueil": 4156,
      "ĠpoÃ¨te": 4157,
      "Ġsoumis": 4158,
      "Ġcombattre": 4159,
      "Ġtristes": 4160,
      "Ã©tabl": 4161,
      "appar": 4162,
      "ancel": 4163,
      "Ġconduire": 4164,
      "Ġressour": 4165,
      "ĠBellequeue": 4166,
      "eurer": 4167,
      "Ġseigneurs": 4168,
      "abes": 4169,
      "Ġautrement": 4170,
      "import": 4171,
      "Ġennemi": 4172,
      "Ġdiscours": 4173,
      "enis": 4174,
      "ĠvÃªte": 4175,
      "oiff": 4176,
      "Ġaugment": 4177,
      "acÃ©": 4178,
      "Ã§aient": 4179,
      "uler": 4180,
      "ĠNotre": 4181,
      "Ġcontes": 4182,
      "Ġsalut": 4183,
      "Ġlangage": 4184,
      "Ġmagistr": 4185,
      "12": 4186,
      "ize": 4187,
      "mment": 4188,
      "oeuvre": 4189,
      "Ġpsych": 4190,
      "Ġsert": 4191,
      "alyse": 4192,
      "ĠLau": 4193,
      "acles": 4194,
      "ĠBal": 4195,
      "enses": 4196,
      "ĠVers": 4197,
      "Ġperte": 4198,
      "Ġvieill": 4199,
      "Ġvenue": 4200,
      "Ġtranquille": 4201,
      "illi": 4202,
      "abbÃ©": 4203,
      "Ġservices": 4204,
      "ĠarmÃ©es": 4205,
      "voir": 4206,
      "ĠrÃ¨g": 4207,
      "onnÃ©s": 4208,
      "ĠRich": 4209,
      "phe": 4210,
      "ministration": 4211,
      "Ġ.Â»": 4212,
      "Ġaccus": 4213,
      "Ġreprod": 4214,
      "ĠobÃ©": 4215,
      "Ġterrit": 4216,
      "Ġlieues": 4217,
      "Ġpromen": 4218,
      "Ġfallut": 4219,
      "Ad": 4220,
      "Ġsomm": 4221,
      "Ġnez": 4222,
      "Ġgrave": 4223,
      "Ġcompagnons": 4224,
      "Ġembr": 4225,
      "Amiens": 4226,
      "ĠdÃ©veloppement": 4227,
      "Ġsouverain": 4228,
      "Ġvaisseaux": 4229,
      "ĠRÃ©gent": 4230,
      "18": 4231,
      "ip": 4232,
      "ĠcÃ´te": 4233,
      "Ġtoil": 4234,
      "...--": 4235,
      "Ġhumaine": 4236,
      "Ġjugement": 4237,
      "ĠInd": 4238,
      "ENT": 4239,
      "lons": 4240,
      "Ġdois": 4241,
      "Ġlun": 4242,
      "Ġnorm": 4243,
      "Ġgrans": 4244,
      "opard": 4245,
      "tra": 4246,
      "Ġcommune": 4247,
      "Ġcorrespond": 4248,
      "Ġprofonde": 4249,
      "Ġtombe": 4250,
      "ologique": 4251,
      "Ġprovinces": 4252,
      "ription": 4253,
      "Ġseptembre": 4254,
      "ĠJÃ©rusalem": 4255,
      "Par": 4256,
      "car": 4257,
      "oches": 4258,
      "esque": 4259,
      "Ġmult": 4260,
      "autoritÃ©": 4261,
      "Ġdisent": 4262,
      "Ãīgypte": 4263,
      "Ġcolonnes": 4264,
      "ĠAvec": 4265,
      "ĠCHAP": 4266,
      "itait": 4267,
      "Ġnaissance": 4268,
      "endie": 4269,
      "Ġeussent": 4270,
      "ĠsupÃ©ri": 4271,
      "Ġcamar": 4272,
      "oile": 4273,
      "Ġout": 4274,
      "Ġost": 4275,
      "itif": 4276,
      "Ġris": 4277,
      "Ġbel": 4278,
      "rance": 4279,
      "Ã©mie": 4280,
      "Ġportrait": 4281,
      "Ġblan": 4282,
      "Ġdimanche": 4283,
      "itiques": 4284,
      "rimÃ©": 4285,
      "ĠSy": 4286,
      "Ġassist": 4287,
      "Ġmena": 4288,
      "influence": 4289,
      "Ġvaste": 4290,
      "ĠvÃ©nit": 4291,
      "Ġjan": 4292,
      "Ġprie": 4293,
      "Ġchoix": 4294,
      "ĠComment": 4295,
      "Ã©ritÃ©": 4296,
      "ĠNouv": 4297,
      "Ã»te": 4298,
      "Ġvouloit": 4299,
      "Ġparticulier": 4300,
      "Que": 4301,
      "eter": 4302,
      "Ġverre": 4303,
      "Ġbrig": 4304,
      "ĠJÃ©s": 4305,
      "Ġdevient": 4306,
      "dieu": 4307,
      "ĠChopard": 4308,
      "ĠcoÃ¯": 4309,
      "ĠdÃ©vou": 4310,
      "oz": 4311,
      "Ġais": 4312,
      "Ã©j": 4313,
      "rection": 4314,
      "orum": 4315,
      "telle": 4316,
      "oncÃ©": 4317,
      "oline": 4318,
      "Ġanglic": 4319,
      "oureuse": 4320,
      "Ġgentil": 4321,
      "Ġpareille": 4322,
      "Ġretirer": 4323,
      "Ġcabinet": 4324,
      "Ġpossession": 4325,
      "hon": 4326,
      "pl": 4327,
      "Ġmut": 4328,
      "Ġtaill": 4329,
      "ceaux": 4330,
      "...,": 4331,
      "Ġtermes": 4332,
      "Ġcertaine": 4333,
      "ĠFlam": 4334,
      "ĠmatÃ©ri": 4335,
      "Ġjuin": 4336,
      "Ġenvoya": 4337,
      "Ġdos": 4338,
      "Ġpur": 4339,
      "Ġcout": 4340,
      "opinion": 4341,
      "idence": 4342,
      "iquement": 4343,
      "othÃ¨que": 4344,
      "Ã©tique": 4345,
      "Ġsainte": 4346,
      "Ġconduit": 4347,
      "Ġresta": 4348,
      "ĠpensÃ©es": 4349,
      "Ġsalon": 4350,
      "Ġblancs": 4351,
      "ĠfenÃªtre": 4352,
      "!--": 4353,
      "loit": 4354,
      "ĠsÃ©d": 4355,
      "esta": 4356,
      "ĠSGANARELLE": 4357,
      "Ġcarr": 4358,
      "Ġpassant": 4359,
      "Ġregards": 4360,
      "ĠrÃ©vol": 4361,
      "Ġambassad": 4362,
      "ITRE": 4363,
      "iet": 4364,
      "Ġsinc": 4365,
      "Ġmoin": 4366,
      "riez": 4367,
      "Ġtrah": 4368,
      "ĠSab": 4369,
      "Ġpoints": 4370,
      "ĠdÃ©but": 4371,
      "ĠappelÃ©": 4372,
      "Ġobtenir": 4373,
      "ĠrÃ©sultat": 4374,
      "ĠlÃ¢": 4375,
      "Ġpain": 4376,
      "oys": 4377,
      "ĠTant": 4378,
      "iditÃ©": 4379,
      "Ġamoureux": 4380,
      "olique": 4381,
      "Ġinspir": 4382,
      "ostitution": 4383,
      "ulture": 4384,
      "ration": 4385,
      "Ġdorm": 4386,
      "ĠqualitÃ©": 4387,
      "ĠqualitÃ©s": 4388,
      "assin": 4389,
      "Ġajouta": 4390,
      "Ġlecture": 4391,
      "rÃĥ": 4392,
      "Ġailleurs": 4393,
      "Ġsoli": 4394,
      "ora": 4395,
      "ĠÃ©troit": 4396,
      "ĠTu": 4397,
      "ĠÃ©pau": 4398,
      "tiel": 4399,
      "Ãªche": 4400,
      "ĠrÃ©put": 4401,
      "Ġfleur": 4402,
      "ĠsiÃ¨ge": 4403,
      "Ġgarnison": 4404,
      "ĠmÃ©lanc": 4405,
      "Ġmidi": 4406,
      "Ġrues": 4407,
      "avenir": 4408,
      "Ġatti": 4409,
      "Ġcherche": 4410,
      "Ġbase": 4411,
      "ĠBlois": 4412,
      "Ġfat": 4413,
      "Ġenlev": 4414,
      "Ġbag": 4415,
      "ĠSouv": 4416,
      "ĠrÃ©gn": 4417,
      "ierge": 4418,
      "Ġceste": 4419,
      "Ġcroix": 4420,
      "Ġportant": 4421,
      "Ġgenoux": 4422,
      "Ġtableau": 4423,
      "ĠintÃ©rÃªts": 4424,
      "gÃ©e": 4425,
      "Ġment": 4426,
      "lection": 4427,
      "Ġterres": 4428,
      "ĠimmÃ©dia": 4429,
      "ĠenvoyÃ©": 4430,
      "Ġlent": 4431,
      "Ġpluseurs": 4432,
      "cieuse": 4433,
      "ĠRou": 4434,
      "Ġposte": 4435,
      "Ġsentait": 4436,
      "ĠCHAPITRE": 4437,
      "Ġlignes": 4438,
      "ena": 4439,
      "ension": 4440,
      "eulement": 4441,
      "nel": 4442,
      "Ġentier": 4443,
      "Ġcontribu": 4444,
      "Ġpage": 4445,
      "ĠmÃ¨": 4446,
      "sibilitÃ©": 4447,
      "Ġtexte": 4448,
      "iÃ©e": 4449,
      "Ġcord": 4450,
      "Ġrig": 4451,
      "ĠDal": 4452,
      "ottes": 4453,
      "rare": 4454,
      "Ġfacilement": 4455,
      "Ġgardes": 4456,
      "?_": 4457,
      "Ġpoit": 4458,
      "ĠcÃ©d": 4459,
      "Ġcoiff": 4460,
      "Ġinvent": 4461,
      "ĠVII": 4462,
      "Ġappare": 4463,
      "ancien": 4464,
      "Ġexpression": 4465,
      "Ġdispositions": 4466,
      "Ġprisonniers": 4467,
      "Ġquartier": 4468,
      "iÃ¨rent": 4469,
      "rop": 4470,
      "Ġachev": 4471,
      "Ġtim": 4472,
      "alli": 4473,
      "Ġbrus": 4474,
      "observ": 4475,
      "Ġrevint": 4476,
      "paravant": 4477,
      "Ġsuccessi": 4478,
      "ĠÃ©glises": 4479,
      "AT": 4480,
      "aid": 4481,
      "Ġnations": 4482,
      "ople": 4483,
      "ĠOui": 4484,
      "Ġforc": 4485,
      "Ġapparti": 4486,
      "ĠmÃ©di": 4487,
      "ĠcÃ©rÃ©m": 4488,
      "atte": 4489,
      "Ġexcl": 4490,
      "uyer": 4491,
      "Ġriches": 4492,
      "Ġraisons": 4493,
      "ĠlÃ¨vres": 4494,
      "usse": 4495,
      "ĠSav": 4496,
      "ĠdonnÃ©e": 4497,
      "Ã©loign": 4498,
      "ĠprÃ©tex": 4499,
      "=.--_": 4500,
      "bas": 4501,
      "ormes": 4502,
      "ĠSc": 4503,
      "Ġforter": 4504,
      "Ġdistance": 4505,
      "Ġressembl": 4506,
      "ĠsÃ©jour": 4507,
      "ruption": 4508,
      "LI": 4509,
      "Ġmast": 4510,
      "iti": 4511,
      "aissez": 4512,
      "Ġproch": 4513,
      "Ġrecommand": 4514,
      "Ġfaiblesse": 4515,
      "Ġconversation": 4516,
      "oce": 4517,
      "tiens": 4518,
      "ĠLi": 4519,
      "atri": 4520,
      "ĠMlle": 4521,
      "ĠtrÃ´ne": 4522,
      "ĠEmma": 4523,
      "Ġarra": 4524,
      "Ġnomm": 4525,
      "Ġvenaient": 4526,
      "Ġvenge": 4527,
      "Ġcherch": 4528,
      "indrent": 4529,
      "Ġconstat": 4530,
      "ĠcomplÃ¨te": 4531,
      "br": 4532,
      "Î¬": 4533,
      "quise": 4534,
      "ault": 4535,
      "ĠdÃ©signer": 4536,
      "Ġobjets": 4537,
      "Comment": 4538,
      "ĠÃ©lec": 4539,
      "prendre": 4540,
      "Ġgrac": 4541,
      "ĠfenÃªtres": 4542,
      "origine": 4543,
      "Histoire": 4544,
      "Ġeaux": 4545,
      "oni": 4546,
      "Ġfaux": 4547,
      "orie": 4548,
      "Ġdesse": 4549,
      "Ġof": 4550,
      "Ġdemeure": 4551,
      "Ġancien": 4552,
      "Ġsoins": 4553,
      "Ġviens": 4554,
      "Ã¨se": 4555,
      "sept": 4556,
      "idement": 4557,
      "instr": 4558,
      "Ġseuls": 4559,
      "ĠsÃ»re": 4560,
      "ĠprogrÃ¨s": 4561,
      "Ġprati": 4562,
      "rions": 4563,
      "Ġpassions": 4564,
      "Ġhistoire": 4565,
      "ĠrÃ©volution": 4566,
      "Ġsourire": 4567,
      "ĠnÃ©cessitÃ©": 4568,
      "Ġcanon": 4569,
      "oeil": 4570,
      "lait": 4571,
      "na": 4572,
      "line": 4573,
      "ectu": 4574,
      "Ġvisite": 4575,
      "ĠCanada": 4576,
      "ĠdegrÃ©": 4577,
      "Ġmanger": 4578,
      "Ġroul": 4579,
      "Ġjolie": 4580,
      "atifs": 4581,
      "ĠdÃ©ce": 4582,
      "Ã©rance": 4583,
      "Ġsires": 4584,
      "Ġexiste": 4585,
      "ĠTit": 4586,
      "Ġcourant": 4587,
      "Ġfera": 4588,
      "usset": 4589,
      "ĠArnoux": 4590,
      "onv": 4591,
      "ĠSch": 4592,
      "ĠEh": 4593,
      "ĠTanc": 4594,
      "aÃ®ne": 4595,
      "Ġemport": 4596,
      "Ġcouvent": 4597,
      "Ġnulle": 4598,
      "Ġabsolument": 4599,
      "Ġmist": 4600,
      "ĠBaud": 4601,
      "ĠconÃ§": 4602,
      "Ġmonuments": 4603,
      "bleau": 4604,
      "Ġredout": 4605,
      "alier": 4606,
      "acitÃ©": 4607,
      "Ġpreuve": 4608,
      "Ġassis": 4609,
      "Ġtremb": 4610,
      "Ġatteint": 4611,
      "Autriche": 4612,
      "lam": 4613,
      "reuse": 4614,
      "anes": 4615,
      "arie": 4616,
      "Ġtab": 4617,
      "Ġlab": 4618,
      "Ġvel": 4619,
      "urÃ©": 4620,
      "ĠMM": 4621,
      "ĠNord": 4622,
      "Ġdonnent": 4623,
      "Ġlivrer": 4624,
      "Ġblanche": 4625,
      "ĠCaroline": 4626,
      "Ġconserver": 4627,
      "Ġnovembre": 4628,
      "ĠFontainebleau": 4629,
      "ĠdignitÃ©": 4630,
      "Ġmeu": 4631,
      "Ġchien": 4632,
      "utes": 4633,
      "Ġmonter": 4634,
      "ibles": 4635,
      "Ġparaissait": 4636,
      "ĠVictor": 4637,
      "Artois": 4638,
      "Es": 4639,
      "Ġtours": 4640,
      "Ġvend": 4641,
      "ĠPR": 4642,
      "ranch": 4643,
      "Ġoui": 4644,
      "ĠmarchÃ©": 4645,
      "Ġfortif": 4646,
      "Ġ31": 4647,
      "Ġcoucher": 4648,
      "Ġparlant": 4649,
      "ELLE": 4650,
      "ly": 4651,
      "itive": 4652,
      "Ġlever": 4653,
      "times": 4654,
      "Ġbasse": 4655,
      "Ãªta": 4656,
      "ĠMusset": 4657,
      "Ġcraindre": 4658,
      "ĠdÃ©fend": 4659,
      "ĠGrecs": 4660,
      "co": 4661,
      "Ġappris": 4662,
      "Ab": 4663,
      "Nous": 4664,
      "garde": 4665,
      "moins": 4666,
      "inv": 4667,
      "oration": 4668,
      "Ġunivers": 4669,
      "ÃĥÂª": 4670,
      "Ġmontagne": 4671,
      "autel": 4672,
      "Ġprenait": 4673,
      "Ġtrouvaient": 4674,
      "Ġauteur": 4675,
      "lÃ©ment": 4676,
      "Ġcommenc": 4677,
      "Ġprobablement": 4678,
      "ĠConstantinople": 4679,
      "Ġlux": 4680,
      "ĠCour": 4681,
      "ĠSarras": 4682,
      "ĠGant": 4683,
      "ayn": 4684,
      "ĠderniÃ¨res": 4685,
      "Ġchapelles": 4686,
      "Ġsexu": 4687,
      "ettait": 4688,
      "Ġajoute": 4689,
      "ĠÃ©trangers": 4690,
      "ĠVillen": 4691,
      "fr": 4692,
      "Ġpoign": 4693,
      "iences": 4694,
      "Ã©rience": 4695,
      "llement": 4696,
      "ĠdiffÃ©rentes": 4697,
      "Ġsoutenir": 4698,
      "ires": 4699,
      "arte": 4700,
      "onnait": 4701,
      "Ã©rable": 4702,
      "airement": 4703,
      "ocr": 4704,
      "Ġlongues": 4705,
      "Ġconseill": 4706,
      "Ġjuger": 4707,
      "Ġprotest": 4708,
      "ĠLorsque": 4709,
      "Ġdistingu": 4710,
      "Ġweb": 4711,
      "Ġfis": 4712,
      "ĠgÃ©": 4713,
      "ĠDU": 4714,
      "Ġinform": 4715,
      "Ġ160": 4716,
      "ĠProstitution": 4717,
      "Ġcirconstance": 4718,
      "ĠdÃ©cembre": 4719,
      "Acad": 4720,
      "Ġpromp": 4721,
      "Ġchag": 4722,
      "ĠchÃ¨re": 4723,
      "irm": 4724,
      "ueill": 4725,
      "ĠOh": 4726,
      "Ġchanter": 4727,
      "Ġusage": 4728,
      "ĠXIIe": 4729,
      "Ġlou": 4730,
      "ĠCol": 4731,
      "avance": 4732,
      "Ġinfin": 4733,
      "Ġspir": 4734,
      "ĠpÃ©riode": 4735,
      "Ã©roard": 4736,
      "Ã©lev": 4737,
      "enou": 4738,
      "medi": 4739,
      "ĠplaÃ®t": 4740,
      "aperÃ§": 4741,
      "...Â»": 4742,
      "ĠportÃ©e": 4743,
      "ĠToutes": 4744,
      "ĠrÃ©flex": 4745,
      "Ġrelations": 4746,
      "za": 4747,
      "Ġaveu": 4748,
      "Ã©tran": 4749,
      "Ġcompter": 4750,
      "version": 4751,
      "Ġquoiqu": 4752,
      "Ġgrosse": 4753,
      "Ġplaisirs": 4754,
      "Ġterritoire": 4755,
      "Ġcarrosse": 4756,
      "Dame": 4757,
      "cu": 4758,
      "erse": 4759,
      "ĠmÃ©ch": 4760,
      "ĠBi": 4761,
      "Ġglor": 4762,
      "ĠlÃ©git": 4763,
      "Ġlangues": 4764,
      "Ġcurieux": 4765,
      "Ġindiff": 4766,
      "As": 4767,
      "gle": 4768,
      "Ġnote": 4769,
      "Ġprol": 4770,
      "ĠDi": 4771,
      "oirs": 4772,
      "Ġgalerie": 4773,
      "Ġpenchant": 4774,
      "Ġindividus": 4775,
      "Ġrayons": 4776,
      "ĠEspagnol": 4777,
      "ATION": 4778,
      "ke": 4779,
      "itÃ©e": 4780,
      "Ġfe": 4781,
      "Ġfum": 4782,
      "ĠfÃªte": 4783,
      "ries": 4784,
      "Ġsamedi": 4785,
      "Ġseroit": 4786,
      "Ġbrave": 4787,
      "Ġjustif": 4788,
      "Ġvieilles": 4789,
      "arrÃªter": 4790,
      "Ġvalet": 4791,
      "Ġsouvenirs": 4792,
      "Ġoiseaux": 4793,
      "imagination": 4794,
      "imes": 4795,
      "Ġjeudi": 4796,
      "Ġchapitre": 4797,
      "AG": 4798,
      "_)": 4799,
      "err": 4800,
      "Ġtor": 4801,
      "Ġauparavant": 4802,
      "ĠÃ©ner": 4803,
      "Ġmesse": 4804,
      "Ġmach": 4805,
      "Ġdouc": 4806,
      "ĠtuÃ©": 4807,
      "lication": 4808,
      "ibus": 4809,
      "Ġsimplement": 4810,
      "ĠchrÃ©tiens": 4811,
      "lÃ©ch": 4812,
      "ni": 4813,
      "anmoins": 4814,
      "riques": 4815,
      "Ġonze": 4816,
      "itudes": 4817,
      "Ġrenouv": 4818,
      "ĠAngleterre": 4819,
      "Ġproduis": 4820,
      "Ġcompris": 4821,
      "Ġsouffrir": 4822,
      "ĠplacÃ©": 4823,
      "ĠÃ©clair": 4824,
      "ĠÃ©tabli": 4825,
      "Ġdomestique": 4826,
      "ĠNostre": 4827,
      "ĠcoÃ¯t": 4828,
      "uch": 4829,
      "Ġiss": 4830,
      "Ġali": 4831,
      "Ġfier": 4832,
      "Ġformer": 4833,
      "Ġmultip": 4834,
      "housiasme": 4835,
      "ĠÃ©paules": 4836,
      "lis": 4837,
      "pes": 4838,
      "Ġtenu": 4839,
      "onna": 4840,
      "Ġsurprise": 4841,
      "ĠBar": 4842,
      "Ġcharme": 4843,
      "Ġretourna": 4844,
      "ÃĪNE": 4845,
      "existence": 4846,
      "Ġdress": 4847,
      "ĠLam": 4848,
      "riÃ¨res": 4849,
      "Ġtoutefois": 4850,
      "ĠprÃ©senter": 4851,
      "ĠrÃ©guli": 4852,
      "Ġbiz": 4853,
      "Ġcostume": 4854,
      "hÃ©s": 4855,
      "Ġmasse": 4856,
      "Ġvoil": 4857,
      "ira": 4858,
      "ĠPe": 4859,
      "Ġcong": 4860,
      "appelle": 4861,
      "Ġfronti": 4862,
      "Ġvoyez": 4863,
      "Ġmilitaire": 4864,
      "ĠphÃ©nom": 4865,
      "Ġcertainement": 4866,
      "Ġbords": 4867,
      "Ġorigin": 4868,
      "Ġanglaise": 4869,
      "ĠSabine": 4870,
      "ĠÃ©nerg": 4871,
      "Tu": 4872,
      "avis": 4873,
      "Ġfini": 4874,
      "ĠMarguer": 4875,
      "lÃ©ans": 4876,
      "Ġsoldat": 4877,
      "Ġsite": 4878,
      "Ġmob": 4879,
      "Ġban": 4880,
      "Ġchoeur": 4881,
      "extr": 4882,
      "Ġpartage": 4883,
      "ĠAnd": 4884,
      "Ġfamilles": 4885,
      "ĠmenÃ©": 4886,
      "Ġjeta": 4887,
      "ĠsupÃ©rieure": 4888,
      "Ġremarquer": 4889,
      "Ã©tablir": 4890,
      "Ġpersuad": 4891,
      "Ġpoitrine": 4892,
      "ĠTancrÃĥ": 4893,
      "ĠSarrasins": 4894,
      "Ġfau": 4895,
      "Ġchron": 4896,
      "Ġnef": 4897,
      "ĠBien": 4898,
      "Ġauxquels": 4899,
      "Ġcompli": 4900,
      "Ġsouh": 4901,
      "Ġempereur": 4902,
      "Ġboulev": 4903,
      "Ġth": 4904,
      "Ġthe": 4905,
      "chn": 4906,
      "atie": 4907,
      "abilitÃ©": 4908,
      "ĠEx": 4909,
      "Ġoncle": 4910,
      "ĠtrouvÃ¨rent": 4911,
      "Ġclair": 4912,
      "Ġlutte": 4913,
      "llemagne": 4914,
      "ĠMarguerite": 4915,
      "Ã´tes": 4916,
      "Ġcrut": 4917,
      "ieus": 4918,
      "Ġcourir": 4919,
      "Ġmanquer": 4920,
      "Ġorg": 4921,
      "Ġsubst": 4922,
      "grand": 4923,
      "Ġesprits": 4924,
      "ĠdestinÃ©e": 4925,
      "ĠagrÃ©able": 4926,
      "_).": 4927,
      "ĠsÅĵur": 4928,
      "urg": 4929,
      "ĠRien": 4930,
      "veille": 4931,
      "ĠChe": 4932,
      "Ġprojets": 4933,
      "Ġphilosophie": 4934,
      "ĠcomplÃ¨tement": 4935,
      "ĠimmÃ©diatement": 4936,
      "ĠVillenoise": 4937,
      "OIS": 4938,
      "asc": 4939,
      "ĠprÃ©p": 4940,
      "Ġsein": 4941,
      "ĠCr": 4942,
      "ĠÃ©toient": 4943,
      "Ġarbres": 4944,
      "Ġsollic": 4945,
      "Ġreconnaissance": 4946,
      "Ġarts": 4947,
      "Ġcouleurs": 4948,
      "alogue": 4949,
      "Ġanglicisme": 4950,
      "Orient": 4951,
      "Ġtyp": 4952,
      "Ġvrais": 4953,
      "ustr": 4954,
      "Ġchanger": 4955,
      "andie": 4956,
      "onnant": 4957,
      "Ġintrod": 4958,
      "Ġenfans": 4959,
      "uges": 4960,
      "Ã«h": 4961,
      "Ġrive": 4962,
      "ĠrÃ©comp": 4963,
      "Ġdessin": 4964,
      "habitude": 4965,
      "ĠÃ©glise": 4966,
      "Ġridicule": 4967,
      "ĠpÃ©ch": 4968,
      "Ġvirent": 4969,
      "ĠÃ©qu": 4970,
      "ĠPad": 4971,
      "ailler": 4972,
      "Ġmonument": 4973,
      "Ġdivin": 4974,
      "Ġnombreuses": 4975,
      "ĠemployÃ©": 4976,
      "Ġrecherche": 4977,
      "ĠperpÃ©t": 4978,
      "Ġerreur": 4979,
      "ensi": 4980,
      "Ġpleur": 4981,
      "ĠThÃ©": 4982,
      "Ġdemoiselle": 4983,
      "Ã©pend": 4984,
      "Ġannon": 4985,
      "Î¿Ï": 4986,
      "ĠconquÃªte": 4987,
      "Ġvendredi": 4988,
      "Ġprotection": 4989,
      "ok": 4990,
      "Î¼": 4991,
      "ĠrÃ©uss": 4992,
      "ĠBov": 4993,
      "intÃ©": 4994,
      "ĠarrivÃ©e": 4995,
      "Ġpareil": 4996,
      "architecture": 4997,
      "Ġvainqu": 4998,
      "ontiers": 4999,
      "Ġmillions": 5000,
      "ĠdÃ©putÃ©s": 5001,
      "ccident": 5002,
      "du": 5003,
      "ĠLang": 5004,
      "Ġhard": 5005,
      "Ġhost": 5006,
      "ĠPaul": 5007,
      "ĠRos": 5008,
      "Ġargent": 5009,
      "Ġamie": 5010,
      "ĠÃ©cout": 5011,
      "Ġdirection": 5012,
      "Ġspiritu": 5013,
      "RAN": 5014,
      "hiver": 5015,
      "Ġpil": 5016,
      "Ġsoul": 5017,
      "Ġcoin": 5018,
      "issi": 5019,
      "Ġvaut": 5020,
      "ĠLoys": 5021,
      "adress": 5022,
      "ensemble": 5023,
      "Ġchevau": 5024,
      "aÃ¯de": 5025,
      "ĠquantitÃ©": 5026,
      "oriz": 5027,
      "Ġmascul": 5028,
      "conque": 5029,
      "Ġremarquable": 5030,
      "ache": 5031,
      "sist": 5032,
      "its": 5033,
      "tiers": 5034,
      "Ġrevient": 5035,
      "Ġconvain": 5036,
      "Ġrendait": 5037,
      "Ġsigneur": 5038,
      "Ġprincipe": 5039,
      "Ġrappeler": 5040,
      "ĠÅĵuvres": 5041,
      "ĠmatiÃ¨re": 5042,
      "roient": 5043,
      "tenir": 5044,
      "Ġpourv": 5045,
      "Ġbattre": 5046,
      "ĠdÃ©bar": 5047,
      "ĠGrand": 5048,
      "ĠlittÃ©raire": 5049,
      "ĠprotÃ©g": 5050,
      "OUR": 5051,
      "tent": 5052,
      "Ġdesp": 5053,
      "ĠCaire": 5054,
      "Ġhyp": 5055,
      "uisse": 5056,
      "Ġdiable": 5057,
      "tern": 5058,
      "artillerie": 5059,
      "Ġregardait": 5060,
      "Ġsemblable": 5061,
      "ĠopÃ©r": 5062,
      "Ġnourrice": 5063,
      "50": 5064,
      "ÏĮ": 5065,
      "Ġdebout": 5066,
      "amais": 5067,
      "ĠDan": 5068,
      "Ã©tend": 5069,
      "Ġtenoit": 5070,
      "Ġnoirs": 5071,
      "Ġlundi": 5072,
      "ctu": 5073,
      "euvres": 5074,
      "Ġbann": 5075,
      "Ġprenant": 5076,
      "Ġparu": 5077,
      "Ġsud": 5078,
      "ĠgÃ©nÃ©": 5079,
      "ĠmaniÃ¨res": 5080,
      "Ġretrouver": 5081,
      "ĠProv": 5082,
      "ĠvallÃ©e": 5083,
      "Ġressources": 5084,
      "rite": 5085,
      "Ġpla": 5086,
      "ĠprÃ©sident": 5087,
      "Ġmorceau": 5088,
      "Ġconseils": 5089,
      "Ġpuissant": 5090,
      "Seigneur": 5091,
      "Ġextraordinaire": 5092,
      "Ġjanvier": 5093,
      "10": 5094,
      "Ġcant": 5095,
      "entendre": 5096,
      "ĠfÃ©v": 5097,
      "Ġvindrent": 5098,
      "estoit": 5099,
      "olphe": 5100,
      "Ã©ph": 5101,
      "Ġmanifest": 5102,
      "lect": 5103,
      "Ġvaill": 5104,
      "Ġavril": 5105,
      "oppos": 5106,
      "Ã®les": 5107,
      "ĠÃ©poux": 5108,
      "ĠrÃ©solu": 5109,
      "Ġlaissant": 5110,
      "Ġbleu": 5111,
      "Ġopinion": 5112,
      "Ġconnaissait": 5113,
      "Åĵuvre": 5114,
      "Ġguerres": 5115,
      "Ġchaleur": 5116,
      "ltre": 5117,
      "tÃ©s": 5118,
      "ÎŃ": 5119,
      "Ġbre": 5120,
      "Ġjoy": 5121,
      "Ġchiens": 5122,
      "avan": 5123,
      "ĠAug": 5124,
      "ico": 5125,
      "embler": 5126,
      "ancÃ©": 5127,
      "Ġflam": 5128,
      "Ġautor": 5129,
      "Ġdescendre": 5130,
      "Ġprincipaux": 5131,
      "Ġsource": 5132,
      "Ġsuccess": 5133,
      "Ġruines": 5134,
      "ĠprÃ©texte": 5135,
      "Ġvengeance": 5136,
      "ĠÃ¨s": 5137,
      "aimer": 5138,
      "oug": 5139,
      "Ã¨ces": 5140,
      "Ġexige": 5141,
      "Ġforment": 5142,
      "Ġtemple": 5143,
      "Ġferait": 5144,
      "Ġmodif": 5145,
      "Ġdomin": 5146,
      "leur": 5147,
      "Ġpill": 5148,
      "ĠCath": 5149,
      "ĠÃ©terne": 5150,
      "Ġassoci": 5151,
      "Ġinfluence": 5152,
      "Ġcommandant": 5153,
      "ĠNevers": 5154,
      "Ġviolence": 5155,
      "ĠrÃ©flÃ©ch": 5156,
      "ĠXXX": 5157,
      "ĠdÃ©sespoir": 5158,
      "IER": 5159,
      "TTE": 5160,
      "jec": 5161,
      "Ġpes": 5162,
      "Ġsombre": 5163,
      "Ġmardi": 5164,
      "itch": 5165,
      "omin": 5166,
      "aspect": 5167,
      "ĠÃ©dit": 5168,
      "champ": 5169,
      "Ġhont": 5170,
      "ape": 5171,
      "Ġsurpris": 5172,
      "artin": 5173,
      "Ġcapable": 5174,
      "Ġfouet": 5175,
      "Ġdimin": 5176,
      "Ġpersonnages": 5177,
      "Ġcontempor": 5178,
      "Re": 5179,
      "ores": 5180,
      "aton": 5181,
      "admir": 5182,
      "Ġsuit": 5183,
      "Ã®mes": 5184,
      "Ġadm": 5185,
      "Ġreprendre": 5186,
      "Ġattention": 5187,
      "ĠmÃ©tier": 5188,
      "ĠTurcs": 5189,
      "ĠrÃ©putation": 5190,
      "Sur": 5191,
      "Ġquere": 5192,
      "ĠTourn": 5193,
      "Ġgrandeur": 5194,
      "Ġdonnant": 5195,
      "ĠaimÃ©": 5196,
      "Ġlaissait": 5197,
      "Ġdistinc": 5198,
      "ĠpÃ©nÃ©t": 5199,
      "Ġsauver": 5200,
      "ĠmÃ©th": 5201,
      "enci": 5202,
      "Ġsanc": 5203,
      "Ã¨che": 5204,
      "imm": 5205,
      "ĠRuss": 5206,
      "empÃªcher": 5207,
      "Ġexerc": 5208,
      "Ġallem": 5209,
      "Ġpartit": 5210,
      "Ġ32": 5211,
      "Ġsortes": 5212,
      "Ġtribus": 5213,
      "ĠrÃªv": 5214,
      "Ġutile": 5215,
      "Ġgagner": 5216,
      "Ġisol": 5217,
      "ziÃ¨me": 5218,
      "ura": 5219,
      "Ġtrouvent": 5220,
      "Ġcolonie": 5221,
      "Ġcoupable": 5222,
      "ĠPourquoi": 5223,
      "dessous": 5224,
      "Ġchamps": 5225,
      "Ġnoblesse": 5226,
      "Ġcondamn": 5227,
      "OrlÃ©ans": 5228,
      "Ġlor": 5229,
      "Ã¨ves": 5230,
      "Ġchats": 5231,
      "ĠMex": 5232,
      "ĠfraÃ®": 5233,
      "Ġtuer": 5234,
      "Ġprincipes": 5235,
      "ĠconsÃ©quence": 5236,
      "Ġsoign": 5237,
      "entif": 5238,
      "Ġfureur": 5239,
      "ĠVern": 5240,
      "Ġdieux": 5241,
      "Ġmange": 5242,
      "ĠhÃ©ros": 5243,
      "Ġant": 5244,
      "ĠÃªtres": 5245,
      "Ġloge": 5246,
      "inct": 5247,
      "Ġnomme": 5248,
      "Ġjadis": 5249,
      "ĠMich": 5250,
      "Ġmorts": 5251,
      "Ġsupport": 5252,
      "Ġtourment": 5253,
      "ĠfÃ©minin": 5254,
      "oquer": 5255,
      "ton": 5256,
      "vue": 5257,
      "quin": 5258,
      "Ġplume": 5259,
      "Ãªle": 5260,
      "Ġharm": 5261,
      "ormais": 5262,
      "Ġheureuse": 5263,
      "Ġbesoins": 5264,
      "Ġartistes": 5265,
      "Ġterrain": 5266,
      "ĠtrÃ©sor": 5267,
      "rou": 5268,
      "Ġtot": 5269,
      "Ġsurv": 5270,
      "ĠBern": 5271,
      "Ã¢n": 5272,
      "ulÃ©": 5273,
      "odes": 5274,
      "Ġrecouv": 5275,
      "ĠrÃ©sol": 5276,
      "ĠÃ©vid": 5277,
      "ĠarrÃªter": 5278,
      "Ġplaces": 5279,
      "Ġculte": 5280,
      "Ġdouceur": 5281,
      "11": 5282,
      "Ġfoss": 5283,
      "Ġvil": 5284,
      "Ġveul": 5285,
      "Ãªtu": 5286,
      "amuse": 5287,
      "Ã®n": 5288,
      "Ġcritique": 5289,
      "Ġrempli": 5290,
      "ĠGrÃ©g": 5291,
      "ĠarrÃªtÃ©": 5292,
      "ĠBruges": 5293,
      "ĠBovary": 5294,
      "lend": 5295,
      "Ġcil": 5296,
      "Ġty": 5297,
      ".....": 5298,
      "iction": 5299,
      "Ã»tes": 5300,
      "Ãīglise": 5301,
      "Ġapercev": 5302,
      "Ã©chapp": 5303,
      "Ġhumain": 5304,
      "Ġreligieuse": 5305,
      "Ġsorti": 5306,
      "Ġdurant": 5307,
      "ĠrÃ©sistance": 5308,
      "Ġphysique": 5309,
      "Ġfaudrait": 5310,
      "per": 5311,
      "son": 5312,
      "Ġdor": 5313,
      "Ġsaut": 5314,
      "Ġmouch": 5315,
      "iteurs": 5316,
      "agrÃ©": 5317,
      "ĠÃ©tudi": 5318,
      "Ġing": 5319,
      "Ġnouvel": 5320,
      "ĠaccÃ¨s": 5321,
      "Ġdemandait": 5322,
      "ĠhÃ©rit": 5323,
      "Mss": 5324,
      "ru": 5325,
      "Ġ|": 5326,
      "Ġdents": 5327,
      "Ġly": 5328,
      "entr": 5329,
      "Ã©laÃ¯de": 5330,
      "Ġviend": 5331,
      "riture": 5332,
      "Ġroug": 5333,
      "Ġtribun": 5334,
      "Ġcolonel": 5335,
      "NOL": 5336,
      "ĠdelÃł": 5337,
      "ernes": 5338,
      "ĠMah": 5339,
      "Ġtrain": 5340,
      "atives": 5341,
      "ĠDub": 5342,
      "uise": 5343,
      "ĠVienne": 5344,
      "ulaire": 5345,
      "Ġaide": 5346,
      "ĠdemandÃ©": 5347,
      "Ġallons": 5348,
      "Ġanciennes": 5349,
      "ĠprÃ©cis": 5350,
      "ĠgalÃ¨res": 5351,
      "Ġsoupir": 5352,
      "Ġaimait": 5353,
      "ĠANNE": 5354,
      "ĠGrÃ©goire": 5355,
      "LL": 5356,
      "PHE": 5357,
      "deur": 5358,
      "Ġmos": 5359,
      "Ġtenant": 5360,
      "usc": 5361,
      "Ġchair": 5362,
      "Ġplaine": 5363,
      "ĠCap": 5364,
      "ĠÃ©tudes": 5365,
      "ĠIb": 5366,
      "ĠRen": 5367,
      "Ã¢tres": 5368,
      "ĠVoy": 5369,
      "Ã©cole": 5370,
      "Ġroys": 5371,
      "Ġportent": 5372,
      "Ġmercre": 5373,
      "Ġmoral": 5374,
      "Ġfeuilles": 5375,
      "Ġfigures": 5376,
      "ĠMalet": 5377,
      "Ġparlait": 5378,
      "Ph": 5379,
      "RI": 5380,
      "haut": 5381,
      "ase": 5382,
      "atures": 5383,
      "Ġrequ": 5384,
      "ĠCeux": 5385,
      "cide": 5386,
      "Ġarb": 5387,
      "oges": 5388,
      "Ġvoulant": 5389,
      "Ġtriomphe": 5390,
      "Ġmasturb": 5391,
      "ĠRussie": 5392,
      "Ġouverte": 5393,
      "Ġpeau": 5394,
      "Ġciter": 5395,
      "reau": 5396,
      "tienne": 5397,
      "Ġparlement": 5398,
      "Ġunique": 5399,
      "trer": 5400,
      "andrie": 5401,
      "ĠDam": 5402,
      "ĠforcÃ©": 5403,
      "Ġbaron": 5404,
      "Ġexistence": 5405,
      "Ġpeintre": 5406,
      "ĠEspagnols": 5407,
      "14": 5408,
      "16": 5409,
      "mar": 5410,
      "Ġlourd": 5411,
      "ancienne": 5412,
      "Ġaction": 5413,
      "Ġsuivante": 5414,
      "ĠAnalyse": 5415,
      "ĠministÃ¨re": 5416,
      "Ġjette": 5417,
      "Ġaud": 5418,
      "ĠÃ©tions": 5419,
      "ĠLy": 5420,
      "rime": 5421,
      "olas": 5422,
      "ĠdÃ©sol": 5423,
      "ingue": 5424,
      "Ġlongs": 5425,
      "ĠchargÃ©s": 5426,
      "Ġpromis": 5427,
      "Ġreconnu": 5428,
      "Ġinterromp": 5429,
      "Ġimagination": 5430,
      "30": 5431,
      "uves": 5432,
      "Ġmoul": 5433,
      "Ġvulg": 5434,
      "organ": 5435,
      "tem": 5436,
      "Ġenn": 5437,
      "Ġpourra": 5438,
      "ĠMA": 5439,
      "ĠTasse": 5440,
      "oreille": 5441,
      "Ġreprend": 5442,
      "Ġallaient": 5443,
      "Ġprofes": 5444,
      "ĠdiffÃ©rents": 5445,
      "Ġconstitu": 5446,
      "Ġempr": 5447,
      "Ġexclus": 5448,
      "Ġcy": 5449,
      "isp": 5450,
      "Ġfolie": 5451,
      "Ġrares": 5452,
      "chesses": 5453,
      "Ġchau": 5454,
      "Ġduquel": 5455,
      "Ġreli": 5456,
      "siÃ¨re": 5457,
      "impos": 5458,
      "ĠrÃ©alitÃ©": 5459,
      "ĠBert": 5460,
      "Ġavantages": 5461,
      "Ġtraduction": 5462,
      "Ġsaurait": 5463,
      "Ġoctobre": 5464,
      "US": 5465,
      "tt": 5466,
      "Ã©al": 5467,
      "erine": 5468,
      "isÃ©s": 5469,
      "Ġtit": 5470,
      "Ġtelles": 5471,
      "orn": 5472,
      "Ġautel": 5473,
      "atoire": 5474,
      "Ġtrag": 5475,
      "abri": 5476,
      "embr": 5477,
      "Ġaid": 5478,
      "Ġsangl": 5479,
      "ĠconservÃ©": 5480,
      "Ġinutile": 5481,
      "Ġmeurt": 5482,
      "indi": 5483,
      "blement": 5484,
      "espace": 5485,
      "Ġeffray": 5486,
      "ĠrestÃ©": 5487,
      "ĠautoritÃ©": 5488,
      "Ġremplir": 5489,
      "bertine": 5490,
      "Ġquestions": 5491,
      "Ġcourtis": 5492,
      "Ġcuri": 5493,
      "humanitÃ©": 5494,
      "ĠfÃ©ti": 5495,
      "Ġmagnifique": 5496,
      "NOLPHE": 5497,
      "Ġmercredi": 5498,
      "Ġmom": 5499,
      "Ġledit": 5500,
      "orb": 5501,
      "ĠbontÃ©": 5502,
      "ĠMan": 5503,
      "ext": 5504,
      "imon": 5505,
      "Ġtantost": 5506,
      "arrÃªt": 5507,
      "Ġtroupe": 5508,
      "Ġancienne": 5509,
      "ĠdÃ©tourn": 5510,
      "Ġplacer": 5511,
      "Ġmultitude": 5512,
      "OM": 5513,
      "iol": 5514,
      "ĠÃ®les": 5515,
      "Ġcres": 5516,
      "Ġboire": 5517,
      "Ġprouver": 5518,
      "Ġdanse": 5519,
      "exÃ©cution": 5520,
      "ĠrÃ©veill": 5521,
      "Ã´tre": 5522,
      "ĠGui": 5523,
      "Ġallez": 5524,
      "Ġ186": 5525,
      "Ã«l": 5526,
      "ĠrÃ©vÃ©l": 5527,
      "Ġsouper": 5528,
      "Ġtravailler": 5529,
      "ĠÃ©crivit": 5530,
      "Ġministres": 5531,
      "Ġesclaves": 5532,
      "Ġdoigts": 5533,
      "obli": 5534,
      "Ġsain": 5535,
      "itec": 5536,
      "itut": 5537,
      "itoy": 5538,
      "Ġense": 5539,
      "ĠLuc": 5540,
      "avent": 5541,
      "ĠBocc": 5542,
      "illons": 5543,
      "cession": 5544,
      "Ġmonte": 5545,
      "ĠOu": 5546,
      "ĠHoll": 5547,
      "obÃ©": 5548,
      "ombres": 5549,
      "Ġremettre": 5550,
      "Ġ180": 5551,
      "ĠcontrÃ©e": 5552,
      "ĠÃ©gard": 5553,
      "Ġcontinuer": 5554,
      "Ġpopulaire": 5555,
      "ĠdÃ©goÃ»t": 5556,
      "Ġsexuels": 5557,
      "rog": 5558,
      "xe": 5559,
      "Ġtint": 5560,
      "ĠnaÃ¯": 5561,
      "ĠnÂº": 5562,
      "Ġaver": 5563,
      "ĠPÃ©tr": 5564,
      "Ã©tÃ©s": 5565,
      "issance": 5566,
      "Ġpropor": 5567,
      "ĠAlda": 5568,
      "Ġ40": 5569,
      "Ġsimples": 5570,
      "Ġveulent": 5571,
      "vingt": 5572,
      "Ġmous": 5573,
      "ĠparaÃ®tre": 5574,
      "ressi": 5575,
      "ĠPas": 5576,
      "exemple": 5577,
      "umÃ©": 5578,
      "ĠrÃ©solution": 5579,
      "Ġrevenu": 5580,
      "Ġpresse": 5581,
      "ĠÃ©viter": 5582,
      "ĠcomposÃ©": 5583,
      "ĠAdÃ©laÃ¯de": 5584,
      "Ġchangement": 5585,
      "Ġprisonnier": 5586,
      "seulement": 5587,
      "Ġpant": 5588,
      "ĠtÃ´t": 5589,
      "Ġtire": 5590,
      "Ġnerv": 5591,
      "Ġball": 5592,
      "ĠÃ©b": 5593,
      "Ġrepar": 5594,
      "ĠVoyez": 5595,
      "Ã©pÃ©e": 5596,
      "Ġaimer": 5597,
      "Ġvivant": 5598,
      "ĠcommencÃ©": 5599,
      "Ġaucuns": 5600,
      "ĠdifficultÃ©s": 5601,
      "Ġsuffit": 5602,
      "Ġsatisfait": 5603,
      "ĠhonnÃªte": 5604,
      "IÃĪRE": 5605,
      "del": 5606,
      "Ġpages": 5607,
      "anou": 5608,
      "ĠprÃªtres": 5609,
      "cheur": 5610,
      "ĠhÃ©s": 5611,
      "range": 5612,
      "ĠarriÃ¨re": 5613,
      "Ġvolontiers": 5614,
      "ĠprÃ©cieux": 5615,
      "Ġraconte": 5616,
      "Ġdocteur": 5617,
      "Ġtendresse": 5618,
      "Ġmettait": 5619,
      "importance": 5620,
      "ieusement": 5621,
      "Denis": 5622,
      "iait": 5623,
      "aritÃ©": 5624,
      "chent": 5625,
      "abe": 5626,
      "ĠPoit": 5627,
      "_.]": 5628,
      "Ġrenvers": 5629,
      "ĠlibÃ©r": 5630,
      "ĠrÃ©sister": 5631,
      "ĠzÃ¨le": 5632,
      "ĠmÃ©cont": 5633,
      "Ġaventure": 5634,
      "Ġcitoyens": 5635,
      "ĠÃ©lectron": 5636,
      "MenÃ©": 5637,
      "dis": 5638,
      "Ġ'": 5639,
      "Ġdus": 5640,
      "Ġpan": 5641,
      "ĠIX": 5642,
      "Ġroyal": 5643,
      "Ġjambes": 5644,
      "ĠrÃ©unir": 5645,
      "CH": 5646,
      "Ġer": 5647,
      "Ġsoie": 5648,
      "Ġfasse": 5649,
      "intelligence": 5650,
      "ĠcomÃ©die": 5651,
      "Ġnev": 5652,
      "Ġdiam": 5653,
      "ĠGauv": 5654,
      "Ġenvelopp": 5655,
      "Ġvolume": 5656,
      "ĠexpÃ©dition": 5657,
      "Ġvisiter": 5658,
      "Ġreconnaiss": 5659,
      "Ġsavant": 5660,
      "Ġattaquer": 5661,
      "Ġvoile": 5662,
      "ĠpÃ©nible": 5663,
      "Ġimportance": 5664,
      "ĠcÃ©lÃ©b": 5665,
      "Ġrapide": 5666,
      "arrivÃ©e": 5667,
      "ĠdÃ©licat": 5668,
      "Ġjalous": 5669,
      "ennent": 5670,
      "Ġcerv": 5671,
      "inaires": 5672,
      "Ġbanc": 5673,
      "ĠComp": 5674,
      "Ġaspect": 5675,
      "ĠdÃ©sormais": 5676,
      "._)": 5677,
      "ĠcoÃ»t": 5678,
      "Ġcomprom": 5679,
      "ĠrÃ©giment": 5680,
      "ĠÃ©tranger": 5681,
      "Ġdiscussi": 5682,
      "ĠparticuliÃ¨re": 5683,
      "Ġfournir": 5684,
      "Ġsympath": 5685,
      "Ġoreilles": 5686,
      "Coment": 5687,
      "Ġine": 5688,
      "Ġloy": 5689,
      "erons": 5690,
      "Ġveu": 5691,
      "Ġjau": 5692,
      "ĠMad": 5693,
      "ĠStr": 5694,
      "ĠJamais": 5695,
      "ĠGÃ©n": 5696,
      "Ġpouvant": 5697,
      "Ġpouvais": 5698,
      "ĠdÃ©pend": 5699,
      "ĠconnaÃ®t": 5700,
      "Ġmilitaires": 5701,
      "Ġquator": 5702,
      "TEUR": 5703,
      "Ġnullement": 5704,
      "ĠoccupÃ©": 5705,
      "AmÃ©rique": 5706,
      "iversitÃ©": 5707,
      "Ġdoucement": 5708,
      "Ġhabitudes": 5709,
      "Ġfantais": 5710,
      "ĠGantois": 5711,
      "ĠGauvain": 5712,
      "uement": 5713,
      "Ġloint": 5714,
      "Ġpiqu": 5715,
      "olf": 5716,
      "ĠDel": 5717,
      "ĠChrist": 5718,
      "Ġproduire": 5719,
      "ĠpoÃ«me": 5720,
      "Ġsommeil": 5721,
      "herbe": 5722,
      "ĠclergÃ©": 5723,
      "Ġmoines": 5724,
      "Sire": 5725,
      "lo": 5726,
      "Ġproie": 5727,
      "Ġimages": 5728,
      "ĠHÃ©roard": 5729,
      "Ġvenger": 5730,
      "Ġfinir": 5731,
      "Ġexcell": 5732,
      "ĠnÃ©glig": 5733,
      "Ġimportant": 5734,
      "ĠpossÃ¨de": 5735,
      "Ġdangereux": 5736,
      "Ġenvirons": 5737,
      "Ġsouhait": 5738,
      "Elle": 5739,
      "prop": 5740,
      "Ġdevoit": 5741,
      "ignation": 5742,
      "Ġfrag": 5743,
      "Ġactions": 5744,
      "Ġobscur": 5745,
      "Ġscand": 5746,
      "Ġ199": 5747,
      "Ġcalif": 5748,
      "ĠprocÃ©d": 5749,
      "ĠdÃ©mont": 5750,
      "Ġsauf": 5751,
      "oids": 5752,
      "Ġmasoch": 5753,
      "ĠXVI": 5754,
      "ĠdÃ©couvrir": 5755,
      "ĠSeigneur": 5756,
      "Ġretrouve": 5757,
      "tellectu": 5758,
      "AcadÃ©mie": 5759,
      "Ġrenouvel": 5760,
      "cus": 5761,
      "Ġcaf": 5762,
      "Ġnoire": 5763,
      "usÃ©": 5764,
      "Ġdut": 5765,
      "amitiÃ©": 5766,
      "Ġintellectu": 5767,
      "ĠoÃ¯": 5768,
      "ĠDor": 5769,
      "opÃ©": 5770,
      "Ġala": 5771,
      "Ã©rieurs": 5772,
      "Ġoffre": 5773,
      "oseph": 5774,
      "berg": 5775,
      "ĠdiffÃ©rence": 5776,
      "ĠrÃªve": 5777,
      "ĠsÃ©rieux": 5778,
      "Ġpersonnage": 5779,
      "Ġparcour": 5780,
      "Ġluxe": 5781,
      "ĠEsc": 5782,
      "Ġabb": 5783,
      "ĠmisÃ¨re": 5784,
      "ĠcommenÃ§ait": 5785,
      "ĠdÃ©sirs": 5786,
      "Ġtradition": 5787,
      "ĠsÃ©rie": 5788,
      "Ġrentrer": 5789,
      "Ġnaturellement": 5790,
      "Ġordinairement": 5791,
      "ĠÃ©vÃ©nements": 5792,
      "ĠvÃªtements": 5793,
      "Ġtoilette": 5794,
      "40": 5795,
      "SI": 5796,
      "laud": 5797,
      "Ġlan": 5798,
      "itations": 5799,
      "ilier": 5800,
      "astre": 5801,
      "ĠgÃª": 5802,
      "expos": 5803,
      "ettent": 5804,
      "Ġvoisins": 5805,
      "ĠvoluptÃ©": 5806,
      "Ġvieillard": 5807,
      "Ġsuccessivement": 5808,
      "ĠÃ´": 5809,
      "qua": 5810,
      "quette": 5811,
      "aises": 5812,
      "ĠAut": 5813,
      "exam": 5814,
      "ĠgrÃ©": 5815,
      "Ġpolitiques": 5816,
      "ĠtirÃ©": 5817,
      "Ġutil": 5818,
      "ĠconsÃ©quent": 5819,
      "19": 5820,
      "pent": 5821,
      "ĠdÃĥ": 5822,
      "oudre": 5823,
      "Ġrapproch": 5824,
      "ĠLeur": 5825,
      "ouvrage": 5826,
      "ĠVend": 5827,
      "Ġexig": 5828,
      "ausse": 5829,
      "Ġrenseigne": 5830,
      "Ġ33": 5831,
      "Ġattendant": 5832,
      "Ġmoderne": 5833,
      "Ġrencontrer": 5834,
      "Ġromaine": 5835,
      "ĠdifficultÃ©": 5836,
      "Ġcharmante": 5837,
      "Ġphrase": 5838,
      "ĠPadoue": 5839,
      "Alex": 5840,
      "Op": 5841,
      "mon": 5842,
      "Ġaise": 5843,
      "itant": 5844,
      "Ġparf": 5845,
      "employ": 5846,
      "Ã©rieures": 5847,
      "espoir": 5848,
      "ĠÎŃ": 5849,
      "Ġhabitans": 5850,
      "pre": 5851,
      "ouche": 5852,
      "quatre": 5853,
      "inqui": 5854,
      "ĠDroit": 5855,
      "ĠRose": 5856,
      "Ġexcep": 5857,
      "clÃ©s": 5858,
      "Ġvolont": 5859,
      "Ġsolenne": 5860,
      "Ġbatt": 5861,
      "ĠjetÃ©": 5862,
      "Ġmouvements": 5863,
      "Ġcercle": 5864,
      "Ġinnoc": 5865,
      "Ġtyran": 5866,
      "ius": 5867,
      "esti": 5868,
      "reaux": 5869,
      "ana": 5870,
      "ith": 5871,
      "ĠfÃªtes": 5872,
      "Ġavions": 5873,
      "Ġdevenait": 5874,
      "Ġdevenue": 5875,
      "vez": 5876,
      "Ġfortement": 5877,
      "ifie": 5878,
      "Ġenvie": 5879,
      "ĠempÃªcher": 5880,
      "ribles": 5881,
      "affaire": 5882,
      "Ġinstrument": 5883,
      "Ġleva": 5884,
      "ĠMessi": 5885,
      "ĠARNOLPHE": 5886,
      "Ġdessein": 5887,
      "ĠfÃ©vrier": 5888,
      "AB": 5889,
      "Ġec": 5890,
      "ĠcÃ´tes": 5891,
      "Ã¨tre": 5892,
      "Ġavint": 5893,
      "ĠSoult": 5894,
      "Ġsubli": 5895,
      "Ġcontesse": 5896,
      "Ġaler": 5897,
      "assembl": 5898,
      "rate": 5899,
      "arts": 5900,
      "ĠdÃ©sire": 5901,
      "Ġrichesses": 5902,
      "ologne": 5903,
      "ĠnÃ©cessaires": 5904,
      "ĠprocÃ¨s": 5905,
      "ĠoubliÃ©": 5906,
      "Ġhistoriens": 5907,
      "ĠPortug": 5908,
      "ĠCatherine": 5909,
      "rÃ¨rent": 5910,
      "Îº": 5911,
      "Ã©z": 5912,
      "eth": 5913,
      "Ġmu": 5914,
      "Ġmonn": 5915,
      "Ġfan": 5916,
      "ĠComm": 5917,
      "ĠhÃ¢": 5918,
      "aver": 5919,
      "ĠVIII": 5920,
      "ĠÂ«_": 5921,
      "ĠNo": 5922,
      "Ã©di": 5923,
      "obe": 5924,
      "ĠpoÃ©tique": 5925,
      "Ġrapporte": 5926,
      "ĠscÃ¨nes": 5927,
      "Ġtraiter": 5928,
      "Ġvraie": 5929,
      "Ġtechn": 5930,
      "Ġoublier": 5931,
      "Ġsatisfaire": 5932,
      "Ġphysion": 5933,
      "tionnaire": 5934,
      "Ġordonna": 5935,
      "ks": 5936,
      "Ġband": 5937,
      "chestre": 5938,
      "ĠLat": 5939,
      "Ġhommage": 5940,
      "Ġdiscip": 5941,
      "ĠÃ©cus": 5942,
      "Ġpouvons": 5943,
      "ĠcollÃ¨": 5944,
      "Ġminutes": 5945,
      "Ġdomaine": 5946,
      "ĠprÃ©cau": 5947,
      "ĠtÃ¢che": 5948,
      "lÃ©s": 5949,
      "ÏĢ": 5950,
      "enues": 5951,
      "Ġmass": 5952,
      "Ġfuite": 5953,
      "Ġriens": 5954,
      "aste": 5955,
      "irg": 5956,
      "ĠGil": 5957,
      "Ġmontra": 5958,
      "Ġterreur": 5959,
      "Ġoccas": 5960,
      "Ġsemblables": 5961,
      "Ġpermettre": 5962,
      "ĠpoÃ©sies": 5963,
      "Ġrapidement": 5964,
      "Ġsemaines": 5965,
      "Ġvoyageurs": 5966,
      "Pr": 5967,
      "ctement": 5968,
      "Ã¨ge": 5969,
      "agÃ©e": 5970,
      "ĠCas": 5971,
      "oiseau": 5972,
      "ĠSoci": 5973,
      "Ã©rÃ©e": 5974,
      "uter": 5975,
      "administration": 5976,
      "oret": 5977,
      "Ġappuy": 5978,
      "Ġpouvez": 5979,
      "ĠgÃ©nÃ©ralement": 5980,
      "Ġfinit": 5981,
      "Ġapprendre": 5982,
      "importe": 5983,
      "Ġcommunes": 5984,
      "ĠmÃ©nage": 5985,
      "SER": 5986,
      "Ġci": 5987,
      "isti": 5988,
      "rirent": 5989,
      "Ġceci": 5990,
      "ĠRh": 5991,
      "ĠVol": 5992,
      "ĠVotre": 5993,
      "Ġdevrait": 5994,
      "Ġvif": 5995,
      "Ġrenvoy": 5996,
      "ĠempÃª": 5997,
      "Ġvivres": 5998,
      "Ġrespec": 5999,
      "Ġcommunication": 6000,
      "ustrie": 6001,
      "tivement": 6002,
      "ĠblessÃ©": 6003,
      "Ġcolonies": 6004,
      "Ġsingulier": 6005,
      "Ġpointe": 6006,
      "oÃ®tre": 6007,
      "ĠAlexandre": 6008,
      "intÃ©ress": 6009,
      "los": 6010,
      "Ġdam": 6011,
      "acre": 6012,
      "Ġpost": 6013,
      "Ġmission": 6014,
      "Ġouvrir": 6015,
      "Ġconcert": 6016,
      "Ġhumeur": 6017,
      "ĠfaÃ§": 6018,
      "ĠAvant": 6019,
      "Ġaimable": 6020,
      "ĠsuprÃªme": 6021,
      ";--": 6022,
      "Ġaient": 6023,
      "Ġpa": 6024,
      "Ġpon": 6025,
      "elet": 6026,
      "Ġdurement": 6027,
      "Ġpluie": 6028,
      "ĠPeut": 6029,
      "Ã©ratrice": 6030,
      "Ġantique": 6031,
      "Ġdoub": 6032,
      ".)]": 6033,
      "information": 6034,
      "Ġvillages": 6035,
      "ĠPÃ©trarque": 6036,
      "lac": 6037,
      "Ġic": 6038,
      "Ġden": 6039,
      "enoit": 6040,
      "aisons": 6041,
      "onstr": 6042,
      "abb": 6043,
      "ĠPic": 6044,
      "ĠEspagne": 6045,
      "Ġencour": 6046,
      "Ġacquis": 6047,
      "Ġaccour": 6048,
      "ĠrÃ©serve": 6049,
      "Ġconvient": 6050,
      "Ġattribu": 6051,
      "Ġtraduit": 6052,
      "ĠMalgrÃ©": 6053,
      "Ġmeilleure": 6054,
      "Ġcacher": 6055,
      "ĠsecrÃ©taire": 6056,
      "Ġcivilisation": 6057,
      "Ġchagrin": 6058,
      "ĠDubois": 6059,
      "ĠANNEE": 6060,
      "Ġcui": 6061,
      "arme": 6062,
      "isl": 6063,
      "isÃ©e": 6064,
      "tez": 6065,
      "Ã§Ãł": 6066,
      "appui": 6067,
      "Ã©litÃ©": 6068,
      "Ġconnais": 6069,
      "Ġhautes": 6070,
      "ĠmusÃ©e": 6071,
      "ĠÃīt": 6072,
      "Ġinstinct": 6073,
      "Ġexemples": 6074,
      "liqua": 6075,
      "ĠfidÃ¨le": 6076,
      "Ġdirai": 6077,
      "Ġfatigu": 6078,
      "Ġchapiteaux": 6079,
      "Ġtristesse": 6080,
      "bus": 6081,
      "yth": 6082,
      "Ġfar": 6083,
      "Ġfors": 6084,
      "Ġlas": 6085,
      "Ġensi": 6086,
      "Ġbaiss": 6087,
      "ĠLille": 6088,
      "endroit": 6089,
      "Ġintellig": 6090,
      "Ġdevers": 6091,
      "ĠLaw": 6092,
      "Ġdemour": 6093,
      "Ġ34": 6094,
      "Ġeffets": 6095,
      "ĠnÃ©anmoins": 6096,
      "Ġoffrir": 6097,
      "ĠbibliothÃ¨que": 6098,
      "Ġmasculin": 6099,
      "frique": 6100,
      "Â°": 6101,
      "entir": 6102,
      "ato": 6103,
      "ief": 6104,
      "ĠSic": 6105,
      "Ġvice": 6106,
      "Ġfallu": 6107,
      "INC": 6108,
      "internet": 6109,
      "Ġvoudrais": 6110,
      "ĠÃ©difices": 6111,
      "alt": 6112,
      "ativement": 6113,
      "ĠPeu": 6114,
      "ĠBoul": 6115,
      "Ġserment": 6116,
      "ignon": 6117,
      "Ġentreprise": 6118,
      "Ġporta": 6119,
      "Ġvoyons": 6120,
      "Ġcommencer": 6121,
      "Ġrespond": 6122,
      "Ġimmob": 6123,
      "Ġretourne": 6124,
      "Ġofficier": 6125,
      "Ġsensible": 6126,
      "ĠfÃ¢ch": 6127,
      "Ma": 6128,
      "Ġpoids": 6129,
      "Ġculture": 6130,
      "ĠbÃªte": 6131,
      "Ġchute": 6132,
      "Ġsieur": 6133,
      "Ġvide": 6134,
      "Ġprintemps": 6135,
      "Ġattendait": 6136,
      "ĠlÃ©ger": 6137,
      "ologiques": 6138,
      "Ġgrosses": 6139,
      "ĠDES": 6140,
      "ĠsoupÃ§": 6141,
      "Ġsauvage": 6142,
      "ĠrÃªves": 6143,
      "Ġchanson": 6144,
      "ĠBoccace": 6145,
      "uti": 6146,
      "Ã©prouv": 6147,
      "Ġsien": 6148,
      "ĠtÃªtes": 6149,
      "Ġchauss": 6150,
      "Ġplai": 6151,
      "ĠCamb": 6152,
      "ĠMÃ©d": 6153,
      "Ġhar": 6154,
      "sign": 6155,
      "prouver": 6156,
      "ĠItal": 6157,
      "accep": 6158,
      "Ã©ter": 6159,
      "ĠRÃ©p": 6160,
      "Ġmarier": 6161,
      "Ġbrut": 6162,
      "Ġapprit": 6163,
      "Ġpronon": 6164,
      "ĠNormandie": 6165,
      "Ġgentilhomme": 6166,
      "Voy": 6167,
      "enÃ§": 6168,
      "ĠprÃ©d": 6169,
      "Ã´p": 6170,
      "Ġcoupe": 6171,
      "Ġaffec": 6172,
      "Ġcombin": 6173,
      "Ġchacune": 6174,
      "ĠMaj": 6175,
      "Ġdirige": 6176,
      "ĠbÃ¢timent": 6177,
      "Ġbaiser": 6178,
      "Ġlentement": 6179,
      "LO": 6180,
      "van": 6181,
      "Ġdent": 6182,
      "Ġneu": 6183,
      "Ġchil": 6184,
      "ĠET": 6185,
      "ettez": 6186,
      "Ġmarbre": 6187,
      "issante": 6188,
      "Ġfruit": 6189,
      "intention": 6190,
      "Ġmalades": 6191,
      "Ġforts": 6192,
      "Ġabond": 6193,
      "ombr": 6194,
      "Ġfavorable": 6195,
      "ĠaccompagnÃ©": 6196,
      "ĠAbd": 6197,
      "Ġprouve": 6198,
      "itent": 6199,
      "alle": 6200,
      "ĠpriÃ¨res": 6201,
      "ĠMenou": 6202,
      "Ġhardi": 6203,
      "actions": 6204,
      "Ġgris": 6205,
      "rances": 6206,
      "ĠHayn": 6207,
      "iÃ¨vre": 6208,
      "Ġ182": 6209,
      "Ġclasse": 6210,
      "Ġcauses": 6211,
      "Ġsuppli": 6212,
      "ĠArabes": 6213,
      "Ġcalcul": 6214,
      "Ġmodes": 6215,
      "Ġartiste": 6216,
      "Ġfonction": 6217,
      "ĠGÃ©nois": 6218,
      "lent": 6219,
      "ritÃ©": 6220,
      "Ã¨mes": 6221,
      "Ġplant": 6222,
      "ĠMÃ©dic": 6223,
      "ĠBen": 6224,
      "Ġserais": 6225,
      "espÃ¨re": 6226,
      "arrÃªta": 6227,
      "ĠentraÃ®": 6228,
      "Ġmalheureuse": 6229,
      "ĠTrois": 6230,
      "ĠdÃ©truire": 6231,
      "Ġlarges": 6232,
      "ĠIndiens": 6233,
      "clÃ©sias": 6234,
      "ĠMÃ©dicis": 6235,
      "IV": 6236,
      "jug": 6237,
      "escl": 6238,
      "Ġtoit": 6239,
      "inage": 6240,
      "ouvant": 6241,
      "ĠRo": 6242,
      "ĠRoche": 6243,
      "Ġexh": 6244,
      "ĠdÃ©sordre": 6245,
      "Ġaccueil": 6246,
      "Ġquatri": 6247,
      "Ġsplend": 6248,
      "Ġprincipal": 6249,
      "approche": 6250,
      "ĠcaractÃ©r": 6251,
      "veillance": 6252,
      "Ġfrapper": 6253,
      "ĠÏĢ": 6254,
      "Ã©jÃł": 6255,
      "entour": 6256,
      "Ġfo": 6257,
      "Ġbapt": 6258,
      "ĠÃ©tats": 6259,
      "ĠPer": 6260,
      "ĠrÃ©al": 6261,
      "troph": 6262,
      "Ġlieut": 6263,
      "Ġattaque": 6264,
      "Ġappeler": 6265,
      "Ġcompagnon": 6266,
      "Ã©bec": 6267,
      "Ġchastiel": 6268,
      "Ġcontinua": 6269,
      "ĠÃ©crivain": 6270,
      "Ġadmirable": 6271,
      "Ġchansons": 6272,
      "AIRE": 6273,
      "Ġdissim": 6274,
      "ĠcuriositÃ©": 6275,
      "face": 6276,
      "gre": 6277,
      "zo": 6278,
      "Ġpag": 6279,
      "Ġsui": 6280,
      "Ġsati": 6281,
      "Ġsiens": 6282,
      "aro": 6283,
      "Ġtur": 6284,
      "Ġprier": 6285,
      "Ġgri": 6286,
      "Ġsurpr": 6287,
      "Ġquels": 6288,
      "Ã©ges": 6289,
      "assa": 6290,
      "Ġcompt": 6291,
      "Ġapproch": 6292,
      "attention": 6293,
      "Ġcontinue": 6294,
      "Ġmusul": 6295,
      "ĠHenry": 6296,
      "ĠQuelque": 6297,
      "Ġprennent": 6298,
      "mor": 6299,
      "Î·": 6300,
      "Ġlune": 6301,
      "ĠpÃ©d": 6302,
      "Ġpoiss": 6303,
      "ĠsÃ©c": 6304,
      "Ġmante": 6305,
      "Ã©rÃ©s": 6306,
      "autÃ©s": 6307,
      "Ġdevons": 6308,
      "Ġcommiss": 6309,
      "ĠdonnÃ©es": 6310,
      "ĠQuelle": 6311,
      "Ġrevoir": 6312,
      "ĠdÃ©cor": 6313,
      "ĠespÃ¨ces": 6314,
      "Ġmorceaux": 6315,
      "Ġsemblent": 6316,
      "Ġsemblaient": 6317,
      "Ġmurailles": 6318,
      "individ": 6319,
      "ĠquittÃ©": 6320,
      "ĠvoÃ»tes": 6321,
      "Ã©crire": 6322,
      "orgueil": 6323,
      "Ġsinon": 6324,
      "Ġarticle": 6325,
      "Ã©nÃ©ral": 6326,
      "Â§": 6327,
      "Ġdil": 6328,
      "Ġsci": 6329,
      "quait": 6330,
      "Ġniv": 6331,
      "Ã¨ler": 6332,
      "alors": 6333,
      "Ġpratique": 6334,
      "Ġrejet": 6335,
      "Ã©ducation": 6336,
      "Ġquelles": 6337,
      "Ġtoucher": 6338,
      "ĠChambre": 6339,
      "Ã©lÃ©g": 6340,
      "Ġrendez": 6341,
      "ribuer": 6342,
      "Ġincap": 6343,
      "Ġ50": 6344,
      "ĠÃ©gal": 6345,
      "Ġseigneurie": 6346,
      "Ġmarchands": 6347,
      "Ġdedans": 6348,
      "Cel": 6349,
      "RA": 6350,
      "uellement": 6351,
      "Ġcle": 6352,
      "ouÃ©": 6353,
      "ĠnaÃ®tre": 6354,
      "ĠpriÃ¨re": 6355,
      "Ġchaud": 6356,
      "ĠSauv": 6357,
      "ĠformÃ©": 6358,
      "Ġmalh": 6359,
      "Ã©moires": 6360,
      "Ġ185": 6361,
      "Ġlibres": 6362,
      "ĠfrÃ©quent": 6363,
      "Ġcadav": 6364,
      "Ġgroupe": 6365,
      "Ġcoutume": 6366,
      "ĠcÃ©rÃ©monie": 6367,
      "ĠsÃ»retÃ©": 6368,
      "EM": 6369,
      "LA": 6370,
      "Ġcors": 6371,
      "Ġtoile": 6372,
      "ĠLÃ©li": 6373,
      "Ġdure": 6374,
      "ĠPers": 6375,
      "ĠSÃ©n": 6376,
      "enser": 6377,
      ".Â»âĢĶ_": 6378,
      "Ġvoleurs": 6379,
      "Ġpubliques": 6380,
      "ĠdÃ©bris": 6381,
      "ĠÎº": 6382,
      "Ġjournaux": 6383,
      "Ġprocurer": 6384,
      "Ġtourner": 6385,
      "Ġsemaine": 6386,
      "Ġemm": 6387,
      "Ġfatigue": 6388,
      "Ġtriomph": 6389,
      "Ġmaman": 6390,
      "ĠVersailles": 6391,
      "ĠJÃ©sus": 6392,
      "ĠingÃ©n": 6393,
      "Av": 6394,
      "page": 6395,
      "ua": 6396,
      "Ġsienne": 6397,
      "oua": 6398,
      "ĠtÃ©n": 6399,
      "Ġvoc": 6400,
      "Ġveuve": 6401,
      "Ġprirent": 6402,
      "Ġgout": 6403,
      "uine": 6404,
      "ĠSous": 6405,
      "ĠHom": 6406,
      "Ġcolonne": 6407,
      "Ġretard": 6408,
      "Ġarrivait": 6409,
      "Ġmerci": 6410,
      "Ġfameux": 6411,
      "ĠprÃ©senta": 6412,
      "ĠÃ¢mes": 6413,
      "uels": 6414,
      "Ġreligieuses": 6415,
      "ĠcomposÃ©e": 6416,
      "ĠÃ©levÃ©e": 6417,
      "occuper": 6418,
      "ĠPlusieurs": 6419,
      "Ã©tablissement": 6420,
      "oÃ»": 6421,
      "Ġsaison": 6422,
      "ĠprÃªtre": 6423,
      "ĠMAR": 6424,
      "ĠSC": 6425,
      "ĠgÃ©nit": 6426,
      "oct": 6427,
      "Ġferai": 6428,
      "Åĵil": 6429,
      "Ġpensa": 6430,
      "Ġpensait": 6431,
      "Ġdistr": 6432,
      "ĠÃ©vÃªque": 6433,
      "Ġintit": 6434,
      "Ġtomba": 6435,
      "Ġsortit": 6436,
      "Ġnationale": 6437,
      "Ġrarement": 6438,
      "ĠbÃ¢timents": 6439,
      "Ġprofesseur": 6440,
      "Ġcamarades": 6441,
      "Ġphysionomie": 6442,
      "ĠquatriÃ¨me": 6443,
      "dent": 6444,
      "Ïİ": 6445,
      "ĠLouvre": 6446,
      "osa": 6447,
      "eci": 6448,
      "ĠIs": 6449,
      "ĠJoseph": 6450,
      "Ã´tres": 6451,
      "Ġroyne": 6452,
      "oliques": 6453,
      "Ġconfess": 6454,
      "Ġ184": 6455,
      "ĠfranÃ§aises": 6456,
      "tifs": 6457,
      "ĠcaractÃ¨res": 6458,
      "Ġtrouble": 6459,
      "Engleterre": 6460,
      "Ġnotes": 6461,
      "Ġhorrible": 6462,
      "ĠTournay": 6463,
      "Is": 6464,
      "_),": 6465,
      "pi": 6466,
      "Ïī": 6467,
      "Ġbill": 6468,
      "ĠprÃªte": 6469,
      "Ġparla": 6470,
      "Ġchante": 6471,
      "Ġpourraient": 6472,
      "ĠCelle": 6473,
      "Ġhom": 6474,
      "ĠDav": 6475,
      "ĠGl": 6476,
      "Ġproclam": 6477,
      "ĠamitiÃ©": 6478,
      "Ã©mitÃ©": 6479,
      "Ġ36": 6480,
      "Ġsaints": 6481,
      "ĠpÃ©ril": 6482,
      "Ġmagistrats": 6483,
      "Ġ/": 6484,
      "ĠvÃ©cu": 6485,
      "Ġoeuvre": 6486,
      "ĠGall": 6487,
      "Ã©crie": 6488,
      "glÃ¨s": 6489,
      "Ġcolons": 6490,
      "ĠfacultÃ©s": 6491,
      "berte": 6492,
      "Ġremarque": 6493,
      "ĠtÃ©moin": 6494,
      "Ġpermission": 6495,
      "ĠHainaut": 6496,
      "ĠVerneuil": 6497,
      "Qui": 6498,
      "oques": 6499,
      "Ġlat": 6500,
      "Ġplaire": 6501,
      "Ġdanser": 6502,
      "inst": 6503,
      "Ġabord": 6504,
      "ĠÃ©puis": 6505,
      "aret": 6506,
      "Ġretomb": 6507,
      "Ġ38": 6508,
      "Ġappelait": 6509,
      "ĠdÃ©couvert": 6510,
      "Ġchiff": 6511,
      "Ġbrusquement": 6512,
      "Gr": 6513,
      "lui": 6514,
      "upp": 6515,
      "Ġbure": 6516,
      "Ġgeste": 6517,
      "ĠCont": 6518,
      "Ġhier": 6519,
      "ĠIr": 6520,
      "ĠEN": 6521,
      "Ġauxquelles": 6522,
      "angers": 6523,
      "Ġamant": 6524,
      "Ġappell": 6525,
      "Ġdirecteur": 6526,
      "Ġaccr": 6527,
      "tinct": 6528,
      "ĠsupÃ©rieur": 6529,
      "Ġmessages": 6530,
      "Ġappartient": 6531,
      "Ġmoments": 6532,
      "ĠGilberte": 6533,
      "Ġsot": 6534,
      "iral": 6535,
      "aissent": 6536,
      "ĠamenÃ©": 6537,
      "Ġprofiter": 6538,
      "ĠcontrÃ©es": 6539,
      "Ġprovis": 6540,
      "ĠmodÃ¨le": 6541,
      "Ġraisonn": 6542,
      "Ã©clat": 6543,
      "ĠFerrare": 6544,
      "Ġfaubourg": 6545,
      "Ġcalife": 6546,
      "bi": 6547,
      "ban": 6548,
      "ĠpÃ¨ler": 6549,
      "rec": 6550,
      "tig": 6551,
      "Ġavais": 6552,
      "ĠhÃ´tel": 6553,
      "Ġsonger": 6554,
      "ĠDÃ©jÃł": 6555,
      "ĠVierge": 6556,
      "ĠentrÃ©e": 6557,
      "instant": 6558,
      "Ġlongueur": 6559,
      "Ġclassi": 6560,
      "Ġcherchait": 6561,
      "Ang": 6562,
      "Ġbarbe": 6563,
      "Ġcomposition": 6564,
      "Ġquitte": 6565,
      "ĠentrÃ¨rent": 6566,
      "Ġobservations": 6567,
      "Ġpaisible": 6568,
      "ĠLaurent": 6569,
      "Ġtitres": 6570,
      "ĠMadrid": 6571,
      "17": 6572,
      "bid": 6573,
      "pec": 6574,
      "esch": 6575,
      "Ġmol": 6576,
      "entrer": 6577,
      "alie": 6578,
      "ĠhÃ¢te": 6579,
      "Ã©rant": 6580,
      "Ġoeuvres": 6581,
      "ciÃ¨rent": 6582,
      "ĠNav": 6583,
      "instinct": 6584,
      "ÃīE": 6585,
      "Ġorient": 6586,
      "Ġexpressions": 6587,
      "Ġcommanda": 6588,
      "Ġvictime": 6589,
      "Ġvictimes": 6590,
      "ĠconsidÃ©rables": 6591,
      "Ġconstructions": 6592,
      "ĠdÃ©lib": 6593,
      "ĠhÃ©roÃ¯": 6594,
      "Ġorigine": 6595,
      "ĠÅĵuvre": 6596,
      "Ġtype": 6597,
      "Ġmasturbation": 6598,
      "Ġign": 6599,
      "quÃ©rir": 6600,
      "Ġrub": 6601,
      "tives": 6602,
      "Ġretir": 6603,
      "cia": 6604,
      "Ġserai": 6605,
      "ignÃ©": 6606,
      "ignifie": 6607,
      "ĠÃ©par": 6608,
      "ĠrÃ©union": 6609,
      "ĠPoly": 6610,
      "ĠmÃ¨tres": 6611,
      "Ġneveu": 6612,
      "pour": 6613,
      "Ġlait": 6614,
      "ench": 6615,
      "quant": 6616,
      "aler": 6617,
      "Ġgaz": 6618,
      "ĠQuÃ©bec": 6619,
      "Ġailes": 6620,
      "Ġvoulaient": 6621,
      "ĠallÃ©": 6622,
      "Ġ187": 6623,
      "ĠAnt": 6624,
      "expÃ©dition": 6625,
      "Ġinstitu": 6626,
      "Ġtableaux": 6627,
      "Ġconstamment": 6628,
      "Ġembarr": 6629,
      "ĠdÃ©cidÃ©": 6630,
      "emploi": 6631,
      "ĠsÃ©nat": 6632,
      "ĠNicolas": 6633,
      "Ġbizarre": 6634,
      "deux": 6635,
      "rain": 6636,
      "ugn": 6637,
      "ouest": 6638,
      "ata": 6639,
      "dev": 6640,
      "ĠBell": 6641,
      "ardins": 6642,
      "Ġmarine": 6643,
      "ĠdeuxiÃ¨me": 6644,
      "ĠdÃ©signe": 6645,
      "Ã©lÃ¨ve": 6646,
      "ĠmontrÃ©": 6647,
      "ĠdÃ©couverte": 6648,
      "Ġsubsist": 6649,
      "ĠcrÃ©ation": 6650,
      "Ġdevoirs": 6651,
      "Ġparfaite": 6652,
      "Ġnavig": 6653,
      "Ġindividu": 6654,
      "ĠdÃ©daign": 6655,
      "Ġvoyageur": 6656,
      "ĠNouvelle": 6657,
      "Ġquatorze": 6658,
      "Esp": 6659,
      "OI": 6660,
      "oec": 6661,
      "Ġung": 6662,
      "Ã©ron": 6663,
      "Ġsim": 6664,
      "aillir": 6665,
      "ĠOB": 6666,
      "Ġroyale": 6667,
      "ÃīN": 6668,
      "ĠEns": 6669,
      "Ġrecul": 6670,
      "Ġadmis": 6671,
      "Ġ183": 6672,
      "ĠmisÃ©rable": 6673,
      "ĠmariÃ©e": 6674,
      "Ġsavants": 6675,
      "ĠÃĩ": 6676,
      "Ġenvoyer": 6677,
      "ĠfrappÃ©": 6678,
      "Ġbalustr": 6679,
      "ĠcurÃ©": 6680,
      "Ġrecherches": 6681,
      "Ġmanquait": 6682,
      "Ġmotifs": 6683,
      "bien": 6684,
      "toi": 6685,
      "Ġpatience": 6686,
      "Ġsab": 6687,
      "quÃ©s": 6688,
      "Ġchants": 6689,
      "ĠComb": 6690,
      "Ġtran": 6691,
      "apercev": 6692,
      "ĠSec": 6693,
      "igo": 6694,
      "ĠGen": 6695,
      "Ġconsist": 6696,
      "ĠÃ©con": 6697,
      "ÃīR": 6698,
      "Ãīc": 6699,
      "ĠvolentÃ©": 6700,
      "Ġretenir": 6701,
      "Ġpuissante": 6702,
      "ĠreprÃ©sente": 6703,
      "ercice": 6704,
      "ĠdÃ©clara": 6705,
      "engage": 6706,
      "ĠÃ©dition": 6707,
      "Escaut": 6708,
      "admiration": 6709,
      "ĠIbn": 6710,
      ".).": 6711,
      "EU": 6712,
      "noc": 6713,
      "Ġmi": 6714,
      "Ã¨bres": 6715,
      "ouvert": 6716,
      "Ġmonast": 6717,
      "Ġcommerci": 6718,
      "Ġcomplet": 6719,
      "ĠHong": 6720,
      "ocat": 6721,
      "Ġexpliquer": 6722,
      "ommod": 6723,
      "ĠdÃ©jeu": 6724,
      "ĠArt": 6725,
      "Ġtribu": 6726,
      "archie": 6727,
      "Ġmeilleurs": 6728,
      "Ġmonsigneur": 6729,
      "ĠÃ©chapper": 6730,
      "ĠforÃªts": 6731,
      "Ġpavillon": 6732,
      "ĠpÃ¢le": 6733,
      "Ex": 6734,
      "Î®": 6735,
      "Ġ-": 6736,
      "Ġtost": 6737,
      "ĠDou": 6738,
      "Ġgraves": 6739,
      "ĠrÃ©jou": 6740,
      "Ġexag": 6741,
      "Ġdic": 6742,
      "ĠHar": 6743,
      "Ġflor": 6744,
      "agnole": 6745,
      "Ġnostre": 6746,
      "Ġsciences": 6747,
      "ĠJeanne": 6748,
      "Ġstup": 6749,
      "infanterie": 6750,
      "Ġfaim": 6751,
      "ĠdurÃ©e": 6752,
      "Ġfrappe": 6753,
      "ĠrÃ©fug": 6754,
      "appeler": 6755,
      "Ġpeindre": 6756,
      "ĠcessÃ©": 6757,
      "ĠÃ©norme": 6758,
      "ĠpropriÃ©tÃ©": 6759,
      "ĠÃ©videmment": 6760,
      "Ġmalheurs": 6761,
      "hi": 6762,
      "Ġlance": 6763,
      "Ġfeste": 6764,
      "ĠjÃł": 6765,
      "Ġpros": 6766,
      "ĠÃ©qui": 6767,
      "Ġtraces": 6768,
      "ĠVille": 6769,
      "Ġpov": 6770,
      "Ġremerci": 6771,
      "Ġbases": 6772,
      "Ġapprend": 6773,
      "Ġsaisir": 6774,
      "Ġchemise": 6775,
      "Ġproposition": 6776,
      "Ġvertus": 6777,
      "risti": 6778,
      "Ġprobable": 6779,
      "ĠchangÃ©": 6780,
      "ĠalliÃ©s": 6781,
      "Pourquoi": 6782,
      "ĠmÃ©thode": 6783,
      "Ġpontif": 6784,
      "VATION": 6785,
      "ettant": 6786,
      "ali": 6787,
      "Ġbienfait": 6788,
      "Ġimage": 6789,
      "umer": 6790,
      "rÃ©v": 6791,
      "ĠHug": 6792,
      "Ġfruits": 6793,
      "Ġentrepr": 6794,
      "ĠdÃ©ploy": 6795,
      "ĠapprÃ©ci": 6796,
      "Ġriant": 6797,
      "Ġverd": 6798,
      "Ġcrimine": 6799,
      "Ġrespons": 6800,
      "Ġdura": 6801,
      "ĠrÃ©duit": 6802,
      "ĠarmÃ©s": 6803,
      "Ġhorreur": 6804,
      "absence": 6805,
      "ĠFlamens": 6806,
      "Ġjalousie": 6807,
      "Une": 6808,
      "dans": 6809,
      "ilitÃ©s": 6810,
      "Ġprost": 6811,
      "ester": 6812,
      "Ġpleurer": 6813,
      "ĠCom": 6814,
      "anges": 6815,
      "umin": 6816,
      "oliÃ¨re": 6817,
      "Ġsupplice": 6818,
      "ĠprovenÃ§": 6819,
      "Ġviolent": 6820,
      "ĠprofondÃ©ment": 6821,
      "ĠfidÃ¨les": 6822,
      "Ġcousin": 6823,
      "15": 6824,
      "Aug": 6825,
      "ey": 6826,
      "harm": 6827,
      "lor": 6828,
      "ĠlÃ¨ve": 6829,
      "ĠpassÃ¨rent": 6830,
      "ĠgarÃ§ons": 6831,
      "Ġcombatt": 6832,
      "Ġ45": 6833,
      "ĠsuccÃ©d": 6834,
      "Ġpleins": 6835,
      "Ġconstitution": 6836,
      "Ġarchitec": 6837,
      "Ġmanifeste": 6838,
      "ĠindiffÃ©r": 6839,
      "ĠHollande": 6840,
      "Ġinex": 6841,
      "ĠecclÃ©sias": 6842,
      "SERVATION": 6843,
      "ones": 6844,
      "erte": 6845,
      "ĠmÃ¨ne": 6846,
      "Ġmembre": 6847,
      "aur": 6848,
      "alon": 6849,
      "oisse": 6850,
      "adresse": 6851,
      "ĠChaque": 6852,
      "Ġcouper": 6853,
      "ĠprÃ©occup": 6854,
      "itesse": 6855,
      "ĠattachÃ©": 6856,
      "Ġmaintenir": 6857,
      "ĠthÃ©orie": 6858,
      "ĠÃ©crits": 6859,
      "Ġobtenu": 6860,
      "ĠfidÃ©litÃ©": 6861,
      "Ġpeinture": 6862,
      "douard": 6863,
      "ĠcafÃ©": 6864,
      "ĠOBSERVATION": 6865,
      "vel": 6866,
      "Ġpomp": 6867,
      "Ġtum": 6868,
      "intes": 6869,
      "ĠleÃ§ons": 6870,
      "omet": 6871,
      "Ġboute": 6872,
      "estable": 6873,
      "Ġincl": 6874,
      "Ġarcs": 6875,
      "Ġtouch": 6876,
      "ĠÃ©pÃ©e": 6877,
      "Ġsensation": 6878,
      "Ġincont": 6879,
      "attendre": 6880,
      "Ġprincipale": 6881,
      "Ġabsol": 6882,
      "Ġajouter": 6883,
      "UniversitÃ©": 6884,
      "ĠprÃ©cÃ©dent": 6885,
      "Ġbarbares": 6886,
      "ĠentourÃ©": 6887,
      "Ġdestruction": 6888,
      "Ġtribunal": 6889,
      "13": 6890,
      "Madame": 6891,
      "ctes": 6892,
      "tÃ©e": 6893,
      "uz": 6894,
      "ĠpaÃ¯": 6895,
      "ĠfÃ®t": 6896,
      "Ġplaindre": 6897,
      "agissait": 6898,
      "ĠMartin": 6899,
      "irait": 6900,
      "Ġintime": 6901,
      "Ã¢h": 6902,
      "Ġdite": 6903,
      "Ġnommer": 6904,
      "Ã©pous": 6905,
      "ĠÃ©pouse": 6906,
      "Ġanimal": 6907,
      "ĠchrÃ©tienne": 6908,
      "Ġpardon": 6909,
      "ĠJustin": 6910,
      "Ġremonter": 6911,
      "Ġperfection": 6912,
      "ĠToutefois": 6913,
      "ĠrÃ¨gle": 6914,
      "ĠprÃ©cisÃ©ment": 6915,
      "oti": 6916,
      "ĠmÃ¢": 6917,
      "ĠfiÃ¨vre": 6918,
      "olet": 6919,
      "aparte": 6920,
      "cieuses": 6921,
      "Ġcontient": 6922,
      "aintenant": 6923,
      "Ġamen": 6924,
      "._--": 6925,
      "Ġadvers": 6926,
      "ĠintÃ©rieure": 6927,
      "oquence": 6928,
      "ĠÃ©crivait": 6929,
      "royable": 6930,
      "Ġhonor": 6931,
      "ĠsÃ©vÃ¨re": 6932,
      "Ġpromenade": 6933,
      "Ġprolong": 6934,
      "ĠprÃ©parer": 6935,
      "ĠVendÃ´me": 6936,
      "gues": 6937,
      "hyp": 6938,
      "uant": 6939,
      "ince": 6940,
      "Ġcoment": 6941,
      "sibles": 6942,
      "Ġexac": 6943,
      "ancÃ©e": 6944,
      "ĠAlpes": 6945,
      "vention": 6946,
      "Ġcroyant": 6947,
      "Ġdivisions": 6948,
      "Ġparaissent": 6949,
      "Ġmanda": 6950,
      "ĠassiÃ©g": 6951,
      "Ġvague": 6952,
      "Ġdiscussion": 6953,
      "OpÃ©ra": 6954,
      "ĠÎºÎ±": 6955,
      "ĠSCÃĪNE": 6956,
      "Ġprostitu": 6957,
      "_.--": 6958,
      "Ġcite": 6959,
      "ouille": 6960,
      "Ġmens": 6961,
      "auf": 6962,
      "Ġtrace": 6963,
      "ĠtraÃ®n": 6964,
      "ĠÃ©touff": 6965,
      "acÃ©e": 6966,
      "ĠAux": 6967,
      "devant": 6968,
      "ĠrÃ©ussi": 6969,
      "ivre": 6970,
      "Ã©criv": 6971,
      "Ġtrouvant": 6972,
      "ĠfranÃ§ois": 6973,
      "Ġservait": 6974,
      "udier": 6975,
      "ĠsoirÃ©e": 6976,
      "Ġdouleurs": 6977,
      "Ġsoumettre": 6978,
      "Ġsagesse": 6979,
      "Ġambassadeurs": 6980,
      "ĠmÃ©dioc": 6981,
      "ĠlÃ©gitime": 6982,
      "20": 6983,
      "jus": 6984,
      "rÃ©g": 6985,
      "ture": 6986,
      "Ġpeux": 6987,
      "Ġtiens": 6988,
      "Ġruine": 6989,
      "Ġbanqu": 6990,
      "ortun": 6991,
      "ĠSan": 6992,
      "acion": 6993,
      "ĠBe": 6994,
      "ĠcongÃ©": 6995,
      "Ġpassages": 6996,
      "ĠactivitÃ©": 6997,
      "Ġenvah": 6998,
      "Ġaffect": 6999,
      "Ġavantage": 7000,
      "Ġhabile": 7001,
      "Ġcauser": 7002,
      "Ġregardant": 7003,
      "Ġfonds": 7004,
      "Ġcalomn": 7005,
      "ĠdÃ©vouement": 7006,
      "ĠLyon": 7007,
      "ĠPortugal": 7008,
      "Ġfine": 7009,
      "Ġtut": 7010,
      "inions": 7011,
      "Ġench": 7012,
      "ĠbÃªtes": 7013,
      "Ġgolf": 7014,
      "Ġvenant": 7015,
      "Ġabat": 7016,
      "Ġallant": 7017,
      "arrÃªte": 7018,
      "ĠpubliÃ©": 7019,
      "Ġdistribu": 7020,
      "Ġconcile": 7021,
      "Ġapparence": 7022,
      "Ġprononcer": 7023,
      "ĠsinguliÃ¨re": 7024,
      "Ġvaisseau": 7025,
      "ĠBourbon": 7026,
      "ĠMajestÃ©": 7027,
      "Ġsonn": 7028,
      "Ġsut": 7029,
      "Ġmirent": 7030,
      "Ġmaud": 7031,
      "Ġfuir": 7032,
      "ĠgÃ©m": 7033,
      "ĠchaÃ®ne": 7034,
      "ĠCON": 7035,
      "sionn": 7036,
      "ĠSf": 7037,
      "ĠrÃ©ellement": 7038,
      "ĠÃ©cras": 7039,
      "ĠFranc": 7040,
      "arth": 7041,
      "Ġfortes": 7042,
      "Ġaccout": 7043,
      "Ġmoine": 7044,
      "Ġscrup": 7045,
      "ello": 7046,
      "Ġcommande": 7047,
      "ĠreÃ§oit": 7048,
      "Ġartis": 7049,
      "ĠproblÃ¨": 7050,
      "piration": 7051,
      "Ġdispers": 7052,
      "ĠÃ©lectronique": 7053,
      "bri": 7054,
      "ution": 7055,
      "Ġib": 7056,
      "quent": 7057,
      "Ġmaux": 7058,
      "Ġfoy": 7059,
      "aug": 7060,
      "ĠCam": 7061,
      "ĠCrÃ©": 7062,
      "igr": 7063,
      "impr": 7064,
      "Ġexception": 7065,
      "ĠLef": 7066,
      "Ġbris": 7067,
      "Ġbrav": 7068,
      "Ġsauvages": 7069,
      "ĠdÃ©guis": 7070,
      "Ġrefuser": 7071,
      "Ġchoisir": 7072,
      "Ġtransform": 7073,
      "Ġrejoindre": 7074,
      "VoilÃł": 7075,
      "cel": 7076,
      "Ġdat": 7077,
      "ouci": 7078,
      "usanne": 7079,
      "ala": 7080,
      "urait": 7081,
      "Ġmart": 7082,
      "ĠOÃ¹": 7083,
      "isson": 7084,
      "ĠcarriÃ¨re": 7085,
      "Ġaccent": 7086,
      "Ġbataill": 7087,
      "Ġtombeau": 7088,
      "ĠlÃ©gisl": 7089,
      "Åĵurs": 7090,
      "ĠAnglois": 7091,
      "ĠpÃ©nÃ©": 7092,
      "Ġretira": 7093,
      "Quand": 7094,
      "ĠcondamnÃ©": 7095,
      "ĠÃ©tablir": 7096,
      "aucun": 7097,
      "ĠnumÃ©rique": 7098,
      "ĠGaule": 7099,
      "ĠRouen": 7100,
      "Ġpromptement": 7101,
      "Ġsuccesseur": 7102,
      "yre": 7103,
      "ĠÃ§Ãł": 7104,
      "Ã©h": 7105,
      "itt": 7106,
      "urie": 7107,
      "ami": 7108,
      "Ġanti": 7109,
      "Ġ200": 7110,
      "Ġmesures": 7111,
      "Ġportaient": 7112,
      "Ġmonta": 7113,
      "Ġrevenant": 7114,
      "Ġ39": 7115,
      "Ġinsp": 7116,
      "Ġexploit": 7117,
      "article": 7118,
      "ĠemployÃ©s": 7119,
      "ĠchrÃ©tien": 7120,
      "Ġmagas": 7121,
      "Empire": 7122,
      "ĠClaud": 7123,
      "Ġrompre": 7124,
      "Ġcitoyen": 7125,
      "accompagn": 7126,
      "ium": 7127,
      "ensible": 7128,
      "ĠcitÃ©s": 7129,
      "Ġfuy": 7130,
      "Ġtol": 7131,
      "Ġtamb": 7132,
      "ĠÃ©veill": 7133,
      "Ġavoec": 7134,
      "rices": 7135,
      "Ġseize": 7136,
      "Ãªnes": 7137,
      "onnÃ©es": 7138,
      "Ġintelligence": 7139,
      "ĠBientÃ´t": 7140,
      "adre": 7141,
      "illÃ©": 7142,
      "Ġcontenir": 7143,
      "Ġfroi": 7144,
      "Ġattr": 7145,
      "Ġpoche": 7146,
      "ĠpoÃ¨tes": 7147,
      "Ġfranc": 7148,
      "Ġconfir": 7149,
      "cepti": 7150,
      "Ġexcellent": 7151,
      "Ġmodernes": 7152,
      "effor": 7153,
      "?Â»âĢĶ_": 7154,
      "Inst": 7155,
      "Ġoiseau": 7156,
      "Ġstatue": 7157,
      "ĠDalgrand": 7158,
      "onvÃ©n": 7159,
      ".;": 7160,
      ".=": 7161,
      "ouise": 7162,
      "Ġmang": 7163,
      "Ġventre": 7164,
      "ĠleÃ§on": 7165,
      "aude": 7166,
      "Ġplat": 7167,
      "Ġcomble": 7168,
      "outes": 7169,
      "ulsion": 7170,
      "icence": 7171,
      "terie": 7172,
      "Ġenfer": 7173,
      "Ġimpression": 7174,
      "ĠdÃ©pens": 7175,
      "Ġ37": 7176,
      "ĠexpÃ©d": 7177,
      "phonse": 7178,
      "impression": 7179,
      "ĠGrÃ¨ce": 7180,
      "Ġgalant": 7181,
      "ĠconsidÃ©ration": 7182,
      "Allons": 7183,
      "Ġsortie": 7184,
      "Ġcultiv": 7185,
      "Ġnotamment": 7186,
      "Ġsacrifice": 7187,
      "ĠmÃ©lancolie": 7188,
      "Ġvainqueur": 7189,
      "ĠMahomet": 7190,
      "ĠSociÃ©tÃ©": 7191,
      "do": 7192,
      "mie": 7193,
      "pÃ¨re": 7194,
      "Ġand": 7195,
      "Ġdangers": 7196,
      "amm": 7197,
      "apon": 7198,
      "Ã©rait": 7199,
      "ĠAussitÃ´t": 7200,
      "ĠrÃ©ussit": 7201,
      "ĠTandis": 7202,
      "Ġdisaient": 7203,
      "igny": 7204,
      "ĠrÃ©pugn": 7205,
      "rame": 7206,
      "Ġlonguement": 7207,
      "athÃ©m": 7208,
      "Ġregarda": 7209,
      "Jean": 7210,
      "ochers": 7211,
      "Ġconseiller": 7212,
      "Ġsyn": 7213,
      "Ġchemins": 7214,
      "ĠplacÃ©e": 7215,
      "ĠprÃ©tentions": 7216,
      "Ġdocument": 7217,
      "Ġdocuments": 7218,
      "Ġcivile": 7219,
      "ĠmystÃ©ri": 7220,
      "Ġbranches": 7221,
      "Ġblanches": 7222,
      "Ġforteresse": 7223,
      "Ġniveau": 7224,
      "can": 7225,
      "ipp": 7226,
      "lan": 7227,
      "neuf": 7228,
      "ox": 7229,
      "vet": 7230,
      "ĠÃ®le": 7231,
      "Ġadieu": 7232,
      "isons": 7233,
      "orchestre": 7234,
      "Ġrond": 7235,
      "Ġbande": 7236,
      "aum": 7237,
      "ĠprÃ©l": 7238,
      "ĠLor": 7239,
      "rimÃ©e": 7240,
      "atop": 7241,
      "Ġhal": 7242,
      "igue": 7243,
      "artiste": 7244,
      "ĠParmi": 7245,
      "Ġvenoit": 7246,
      "Ġassise": 7247,
      "Ġrepris": 7248,
      "Ġsuivit": 7249,
      "Ġducats": 7250,
      "Ġvivait": 7251,
      "Ġsaisit": 7252,
      "Ġsouffrances": 7253,
      "ĠrÃ©gime": 7254,
      "ĠrencontrÃ©": 7255,
      "envie": 7256,
      "attaque": 7257,
      "Ġtranquill": 7258,
      "Ġpoursuivre": 7259,
      "Ġraconter": 7260,
      "Ġgrecque": 7261,
      "Ġmanuscrits": 7262,
      "Ġsanctu": 7263,
      "Ġsublime": 7264,
      "ĠSforce": 7265,
      "Allemagne": 7266,
      "dite": 7267,
      "ll": 7268,
      "oub": 7269,
      "Ã¨dent": 7270,
      "ĠÃ©lect": 7271,
      "Ġchancel": 7272,
      "Ãªques": 7273,
      "ĠCon": 7274,
      "oison": 7275,
      "amus": 7276,
      "ĠPont": 7277,
      "ĠVirg": 7278,
      "dieux": 7279,
      "espÃ¨ce": 7280,
      "Ġfautes": 7281,
      "ĠMars": 7282,
      "Ġbouff": 7283,
      "ĠVenez": 7284,
      "Ġtenter": 7285,
      "ĠLorsqu": 7286,
      "ĠextrÃªmement": 7287,
      "ĠfrontiÃ¨re": 7288,
      "bonne": 7289,
      "rb": 7290,
      "Ġdouter": 7291,
      "Ġlin": 7292,
      "Ġcot": 7293,
      "Ġqueue": 7294,
      "nelle": 7295,
      "astie": 7296,
      "Ġgrat": 7297,
      "ulle": 7298,
      "alehaut": 7299,
      "Ġaigu": 7300,
      "Ġprises": 7301,
      "Ġattent": 7302,
      "Ġjouir": 7303,
      "ĠsimplicitÃ©": 7304,
      "ĠpoÃ«tes": 7305,
      "Ġphilosophe": 7306,
      "Ġrangs": 7307,
      "Ġchoisi": 7308,
      "ĠespÃ©rances": 7309,
      "Ġdomestiques": 7310,
      "Ġquarts": 7311,
      "Ġsuperbe": 7312,
      "Ġvraisembl": 7313,
      "ĠpÃ©nÃ©trer": 7314,
      "Cor": 7315,
      "mat": 7316,
      "ensions": 7317,
      "enthousiasme": 7318,
      "Ġjardins": 7319,
      "Ġserez": 7320,
      "ĠGir": 7321,
      "Ġcruelle": 7322,
      "Ġquelconque": 7323,
      "Ã©rie": 7324,
      "allais": 7325,
      "Ġrevers": 7326,
      "ector": 7327,
      "ĠrÃ©pondait": 7328,
      "Ġintention": 7329,
      "Ġrichesse": 7330,
      "ĠÃ¢gÃ©": 7331,
      "Ġ60": 7332,
      "ĠsacrÃ©": 7333,
      "Ġrobes": 7334,
      "appelait": 7335,
      "ĠrÃ©sultats": 7336,
      "Ġenvoia": 7337,
      "individu": 7338,
      "Ġscientif": 7339,
      "hier": 7340,
      "Ġ:": 7341,
      "Ġvant": 7342,
      "Ġnette": 7343,
      "Ġjoign": 7344,
      "Ġunes": 7345,
      "ĠCli": 7346,
      "Ġneige": 7347,
      "Ġher": 7348,
      "ĠPAR": 7349,
      "Ã¢ces": 7350,
      "onnez": 7351,
      "Ġpartager": 7352,
      "Ġadresse": 7353,
      "Ġbatailles": 7354,
      "Ġ44": 7355,
      "Ġtraitement": 7356,
      "Ġcentr": 7357,
      "vesque": 7358,
      "ĠremarquÃ©": 7359,
      "Ġcanne": 7360,
      "Ġimportante": 7361,
      "ĠÃ©motion": 7362,
      "Ġrassembl": 7363,
      "ĠBonaparte": 7364,
      "ĠmÃ©content": 7365,
      "ĠEnsuite": 7366,
      "ĠClaudas": 7367,
      "inant": 7368,
      "tiaux": 7369,
      "atti": 7370,
      "ĠBre": 7371,
      "Ġdirig": 7372,
      "Ã©dif": 7373,
      "Ġsoulev": 7374,
      "ĠassÃ©s": 7375,
      "Ġobsc": 7376,
      "Ġrendirent": 7377,
      "Ġarrivant": 7378,
      "Ġsubit": 7379,
      "ĠÃ©levÃ©s": 7380,
      "habit": 7381,
      "ĠprÃ©venir": 7382,
      "Ġatteindre": 7383,
      "Ġhonneurs": 7384,
      "ASTE": 7385,
      "Ġambassadeur": 7386,
      "Ã©pendance": 7387,
      "ĠgÃ©nitales": 7388,
      "lau": 7389,
      "Ġpous": 7390,
      "quiel": 7391,
      "tiez": 7392,
      "Ġence": 7393,
      "Ġenchant": 7394,
      "ĠMin": 7395,
      "ĠMOR": 7396,
      "Ġasse": 7397,
      "Ġpreuves": 7398,
      "Ġamener": 7399,
      "Ġ35": 7400,
      "Ġnombreuse": 7401,
      "Ġ48": 7402,
      "ĠgardÃ©": 7403,
      "Ġdescendant": 7404,
      "Ġressemble": 7405,
      "Ġvoisine": 7406,
      "Ġcroyais": 7407,
      "Ġdessous": 7408,
      "offici": 7409,
      "chevÃªque": 7410,
      "ĠblessÃ©s": 7411,
      "ĠdÃ©cider": 7412,
      "Ġcharmant": 7413,
      "Ġtroubadour": 7414,
      "ĠNormendie": 7415,
      "ĠaisÃ©ment": 7416,
      "Ġparfum": 7417,
      "Ġexactement": 7418,
      "Ã²": 7419,
      "Ïį": 7420,
      "Ġso": 7421,
      "Ġcoute": 7422,
      "Ġcouverte": 7423,
      "anci": 7424,
      "itivement": 7425,
      "ouvrir": 7426,
      "ĠIer": 7427,
      "Ġoccident": 7428,
      "image": 7429,
      "ĠBav": 7430,
      "ĠBiron": 7431,
      "Ã´mes": 7432,
      "gnes": 7433,
      "Ġcompaign": 7434,
      "obst": 7435,
      "ĠEntre": 7436,
      "Ġenfance": 7437,
      "Ġflot": 7438,
      "phÃ¨re": 7439,
      "Ġautrich": 7440,
      "Ġplaisant": 7441,
      "Ġproduits": 7442,
      "Ġ179": 7443,
      "Ġformid": 7444,
      "ĠPlaton": 7445,
      "ĠpossÃ©dait": 7446,
      "Ġcuisine": 7447,
      "Ġdormir": 7448,
      "Ġcerveau": 7449,
      "Ġamp": 7450,
      "Ġmine": 7451,
      "omas": 7452,
      "Ġgaulois": 7453,
      "Ġchan": 7454,
      "agu": 7455,
      "ĠÃ©tendue": 7456,
      "ĠIci": 7457,
      "Ġsurmont": 7458,
      "uisit": 7459,
      "Ã©nerg": 7460,
      "Ġparticip": 7461,
      "ĠdÃ©sagrÃ©": 7462,
      "Ġdirectement": 7463,
      "Ġflat": 7464,
      "Ġvoyages": 7465,
      "ultÃ¨re": 7466,
      "Ġcrier": 7467,
      "Ġconcours": 7468,
      "Ġressort": 7469,
      "expÃ©rience": 7470,
      "maj": 7471,
      "Ã©glyse": 7472,
      "Ġtromper": 7473,
      "Ġlogis": 7474,
      "ĠRodolphe": 7475,
      "Ġloisir": 7476,
      "ĠSyrie": 7477,
      "Ġorgueil": 7478,
      "Ġpourvu": 7479,
      "Pierre": 7480,
      "Signifie": 7481,
      "court": 7482,
      "Ġpist": 7483,
      "Ġmout": 7484,
      "ommÃ©e": 7485,
      "Ġjeux": 7486,
      "Ġjoindre": 7487,
      "alys": 7488,
      "uritÃ©": 7489,
      "Ġsurp": 7490,
      "ĠAU": 7491,
      "ĠEurope": 7492,
      "Ġgrace": 7493,
      "empress": 7494,
      "ĠNantes": 7495,
      "Ġtouche": 7496,
      "ĠmanquÃ©": 7497,
      "Ġcorp": 7498,
      "Ġmontrait": 7499,
      "Ġassure": 7500,
      "Ġreproche": 7501,
      "Ġorn": 7502,
      "RES": 7503,
      "Ġdescription": 7504,
      "Ġmodeste": 7505,
      "Ġsouriant": 7506,
      "Ġcanal": 7507,
      "Ġdram": 7508,
      "Ġremplacer": 7509,
      "ĠValois": 7510,
      "Ġachet": 7511,
      "Ġmettent": 7512,
      "tionnaires": 7513,
      "Ġsupposer": 7514,
      "Ġfaudra": 7515,
      "orizon": 7516,
      "ĠopÃ©rations": 7517,
      "ĠfÃ©tich": 7518,
      "IL": 7519,
      "Quel": 7520,
      "Ġliste": 7521,
      "Ġpit": 7522,
      "Ġtente": 7523,
      "Ġhist": 7524,
      "abat": 7525,
      "ĠDom": 7526,
      "ĠTour": 7527,
      "Ġdieu": 7528,
      "ĠGuise": 7529,
      "cheff": 7530,
      "Ġcourse": 7531,
      "Ġmontrant": 7532,
      "Ġretent": 7533,
      "Ġorent": 7534,
      "ĠdÃ©barr": 7535,
      "Ġagir": 7536,
      "ĠfacilitÃ©": 7537,
      "ambassad": 7538,
      "approcher": 7539,
      "Ġtraditions": 7540,
      "entends": 7541,
      "Ġpatriarche": 7542,
      "Ġconvenable": 7543,
      "QUE": 7544,
      "Ġconfondre": 7545,
      "Ġvelours": 7546,
      "journ": 7547,
      "ny": 7548,
      "asp": 7549,
      "Ġchaise": 7550,
      "ĠCamp": 7551,
      "ĠMant": 7552,
      "amiral": 7553,
      "Ġsurface": 7554,
      "Ġexil": 7555,
      "Ġcourte": 7556,
      "obscur": 7557,
      "Ġflatt": 7558,
      "Ġconnue": 7559,
      "Ġsupporter": 7560,
      "Ġsavais": 7561,
      "Ġsuccomb": 7562,
      "Ġromain": 7563,
      "ĠXIVe": 7564,
      "ĠbÃ©nÃ©f": 7565,
      "Ġinconnu": 7566,
      "Ġsommet": 7567,
      "ĠrÃ©flexions": 7568,
      "Ġrenseignements": 7569,
      "ĠfaÃ§ade": 7570,
      "ĠÃ´t": 7571,
      "enance": 7572,
      "quets": 7573,
      "eussent": 7574,
      "Ġtentes": 7575,
      "Ġnat": 7576,
      "Ġjup": 7577,
      "Ġgend": 7578,
      "Ġplaign": 7579,
      "agent": 7580,
      "ĠPet": 7581,
      "ĠAs": 7582,
      "Ġsiff": 7583,
      "ĠBor": 7584,
      "ardie": 7585,
      "Ġcomplais": 7586,
      "Ã©loigne": 7587,
      "âĢĶÂ«": 7588,
      "Ġassurer": 7589,
      "ĠdÃ©pit": 7590,
      "Ġ43": 7591,
      "Ġcria": 7592,
      "Ġcontinent": 7593,
      "Ġcouvrir": 7594,
      "Ġcroiss": 7595,
      "quisition": 7596,
      "Ġcavaliers": 7597,
      "ĠÃ©vÃ©nement": 7598,
      "animal": 7599,
      "Ġfolle": 7600,
      "Asie": 7601,
      "ĠÃ©prouver": 7602,
      "ĠMur": 7603,
      "Ġceint": 7604,
      "âĢĻ_": 7605,
      "ĠJules": 7606,
      "illus": 7607,
      "ĠcrÃ©dit": 7608,
      "ĠdonnÃ©s": 7609,
      "Ġ2000": 7610,
      "Ġjustement": 7611,
      "Ġamus": 7612,
      "Ġflanc": 7613,
      "Ġaffection": 7614,
      "Ġ56": 7615,
      "ĠArriv": 7616,
      "Ġperdue": 7617,
      "Ġsouffle": 7618,
      "Ġsymb": 7619,
      "Ġrepas": 7620,
      "ĠreprÃ©senter": 7621,
      "forts": 7622,
      "Ġvoudrait": 7623,
      "ouillÃ©": 7624,
      "ĠbrÃ»l": 7625,
      "ispens": 7626,
      "Ġlieutenant": 7627,
      "ĠHomais": 7628,
      "Du": 7629,
      "nie": 7630,
      "ube": 7631,
      "Ġsir": 7632,
      "oucher": 7633,
      "ĠfÃ©c": 7634,
      "Ġvoies": 7635,
      "elli": 7636,
      "omatop": 7637,
      "Ġraf": 7638,
      "Ã¨vre": 7639,
      "Ġenlever": 7640,
      "Ġaudit": 7641,
      "Ġsurn": 7642,
      "igner": 7643,
      "artÃ©": 7644,
      "Ġseules": 7645,
      "uivant": 7646,
      "Ġrenoncer": 7647,
      "Ġcollec": 7648,
      "Ġconform": 7649,
      "Ġpaysans": 7650,
      "Ġintrig": 7651,
      "Ġpersonnel": 7652,
      "Ġmener": 7653,
      "ĠexcÃ¨s": 7654,
      "Ġtenaient": 7655,
      "ĠrÃ©unis": 7656,
      "ĠXVIII": 7657,
      "Ġdiriger": 7658,
      "Ġsculpture": 7659,
      "ĠSouvrÃ©": 7660,
      "ĠHongrie": 7661,
      "AC": 7662,
      "ismes": 7663,
      "Ġvues": 7664,
      "omique": 7665,
      "ĠrÃ´": 7666,
      "ĠLeurs": 7667,
      "ĠÃ©tage": 7668,
      "abond": 7669,
      "ĠentrÃ©": 7670,
      "Ġmarque": 7671,
      "Ġassass": 7672,
      "Ġremit": 7673,
      "Ġconver": 7674,
      "Ġpatron": 7675,
      "Ġdomination": 7676,
      "Ġcroyez": 7677,
      "Ġopinions": 7678,
      "ĠÃ©lever": 7679,
      "Ġillustre": 7680,
      "Ġbrillante": 7681,
      "Ġvoluptu": 7682,
      "Ġsoudain": 7683,
      "Ġvoisinage": 7684,
      "don": 7685,
      "dem": 7686,
      "to": 7687,
      "Ġpeste": 7688,
      "Ġsoy": 7689,
      "Ġcest": 7690,
      "Ġmention": 7691,
      "arra": 7692,
      "Ġchamb": 7693,
      "agÃ©s": 7694,
      "ĠcontÃ©": 7695,
      "Ġpervers": 7696,
      "ĠChac": 7697,
      "Ġpouvoit": 7698,
      "Ġaccident": 7699,
      "ucteur": 7700,
      "Ġimprim": 7701,
      "Ġconnus": 7702,
      "Ġgaran": 7703,
      "ĠblÃ¢": 7704,
      "Ġjoues": 7705,
      "Ġtraite": 7706,
      "Ġpublics": 7707,
      "Ġpromener": 7708,
      "ĠÃ©lÃ¨ves": 7709,
      "Ġsavent": 7710,
      "Ġsubir": 7711,
      "Ġvostre": 7712,
      "Ġraces": 7713,
      "escalier": 7714,
      "Ġimprud": 7715,
      "Ġpoing": 7716,
      "Ġbourgois": 7717,
      "Ġlimites": 7718,
      "Ġcand": 7719,
      "entin": 7720,
      "inÃ©e": 7721,
      "Ġrage": 7722,
      "aurai": 7723,
      "Ġredev": 7724,
      "ĠCourt": 7725,
      "irai": 7726,
      "onnent": 7727,
      "ĠIvan": 7728,
      "ĠBoh": 7729,
      "tru": 7730,
      "Ġcomptait": 7731,
      "Ġentret": 7732,
      "Ġvenons": 7733,
      "Ġterribles": 7734,
      "Ġconfusion": 7735,
      "Ġindispens": 7736,
      "Ġcommander": 7737,
      "arck": 7738,
      "arriver": 7739,
      "ĠassurÃ©": 7740,
      "Ġchapiteau": 7741,
      "ĠaperÃ§ut": 7742,
      "ĠThÃ©od": 7743,
      "ouverture": 7744,
      "Dans": 7745,
      "GE": 7746,
      "Roy": 7747,
      "iani": 7748,
      "ĠpÃ¨res": 7749,
      "Ġfug": 7750,
      "ĠMoi": 7751,
      "irab": 7752,
      "ĠPoug": 7753,
      "union": 7754,
      "Ġdipl": 7755,
      "ocrate": 7756,
      "ĠÃ©pouvant": 7757,
      "Ġenvoie": 7758,
      "Ã©volution": 7759,
      "Ġsentit": 7760,
      "ommun": 7761,
      "lÃ©ments": 7762,
      "Ġverra": 7763,
      "astille": 7764,
      "ANT": 7765,
      "Ġhabits": 7766,
      "ĠcrÃ©Ã©": 7767,
      "ĠdÃ©clare": 7768,
      "envoyer": 7769,
      "Ġirrit": 7770,
      "Ġlecteurs": 7771,
      "Ġdira": 7772,
      "ĠÃ©ducation": 7773,
      "Ġvigueur": 7774,
      "ĠPalais": 7775,
      "Ã©loigner": 7776,
      "ĠBernard": 7777,
      "Ġmanteau": 7778,
      "OT": 7779,
      "cription": 7780,
      "hu": 7781,
      "Ãĩ": 7782,
      "Ġdog": 7783,
      "Ġpiles": 7784,
      "Ġvap": 7785,
      "oris": 7786,
      "Ġner": 7787,
      "Ġchasser": 7788,
      "Ġrech": 7789,
      "Ġcomtes": 7790,
      "avoient": 7791,
      "ister": 7792,
      "Ġarran": 7793,
      "Ġexcessi": 7794,
      "Ġmarquise": 7795,
      "Ġanalog": 7796,
      "Ġdonnaient": 7797,
      "Ġparts": 7798,
      "Ġinsur": 7799,
      "ĠespÃ©rer": 7800,
      "Ġ49": 7801,
      "Ġsouffert": 7802,
      "Ġcouche": 7803,
      "Ġquitt": 7804,
      "ernitÃ©": 7805,
      "oÃ¯s": 7806,
      "Ġmarchandises": 7807,
      "ĠadoptÃ©": 7808,
      "ĠGeorge": 7809,
      "ĠrÃ©volte": 7810,
      "ĠphÃ©nomÃ¨ne": 7811,
      "ĠrÃ©compense": 7812,
      "Beuve": 7813,
      "Des": 7814,
      "ax": 7815,
      "Ã¼": 7816,
      "Ġains": 7817,
      "Ġpis": 7818,
      "Ġtiers": 7819,
      "ĠvÃ©g": 7820,
      "elin": 7821,
      "Ġber": 7822,
      "Ġpars": 7823,
      "ĠCÃ©s": 7824,
      "Ġsug": 7825,
      "Ġconsiste": 7826,
      "ayer": 7827,
      "Ġadonc": 7828,
      "Ġabus": 7829,
      "Ġsouci": 7830,
      "Ġempire": 7831,
      "Ġfermer": 7832,
      "ommages": 7833,
      "Ġcontraint": 7834,
      "ĠcherchÃ©": 7835,
      "ĠÎ¬": 7836,
      "ĠconsidÃ©rer": 7837,
      "Ġabsence": 7838,
      "Ġoblig": 7839,
      "Ġparvenir": 7840,
      "Ġdisparu": 7841,
      "ĠsupÃ©rioritÃ©": 7842,
      "ĠPougat": 7843,
      "AM": 7844,
      "Mes": 7845,
      "ament": 7846,
      "uÃ©e": 7847,
      "onanisme": 7848,
      "Ġmors": 7849,
      "Ġtom": 7850,
      "inois": 7851,
      "tements": 7852,
      "ĠrÃĥ": 7853,
      "Ġrusse": 7854,
      "ĠboÃ®": 7855,
      "Ġdesquels": 7856,
      "Ġjoint": 7857,
      "urp": 7858,
      "Ġhos": 7859,
      "ĠPi": 7860,
      "empÃª": 7861,
      "ĠTel": 7862,
      "Ã©gard": 7863,
      "Ġbraves": 7864,
      "Ġobs": 7865,
      "Ġheureusement": 7866,
      "Ġprincipalement": 7867,
      "Ġsocial": 7868,
      "ĠWal": 7869,
      "ĠenvoyÃ©s": 7870,
      "Ġtenue": 7871,
      "ĠsituÃ©": 7872,
      "Ġalliance": 7873,
      "Ġvoiles": 7874,
      "ĠProvence": 7875,
      "Ġgolfe": 7876,
      "Institut": 7877,
      "ĠPougatcheff": 7878,
      "uait": 7879,
      "Ġombre": 7880,
      "Ġdrame": 7881,
      "Ã©lever": 7882,
      "Ġpic": 7883,
      "ĠfiÃ¨re": 7884,
      "Ġrose": 7885,
      "Ġpria": 7886,
      "Ġprosp": 7887,
      "chÃ©es": 7888,
      "uifs": 7889,
      "ĠÃ©tend": 7890,
      "ola": 7891,
      "olis": 7892,
      "ĠSam": 7893,
      "ĠSimon": 7894,
      "ĠgrÃ¢ces": 7895,
      "Ġconcev": 7896,
      "Ġcroir": 7897,
      "ĠdÃ©sirer": 7898,
      "odie": 7899,
      "Ġeust": 7900,
      "Ġcorromp": 7901,
      "Ġpudeur": 7902,
      "Ġrevenus": 7903,
      "Ġaffai": 7904,
      "Ġverbe": 7905,
      "._âĢĶÂ«": 7906,
      "Ġhumaines": 7907,
      "industrie": 7908,
      "Ġtraverser": 7909,
      "Ġessenti": 7910,
      "ĠcrÃ©er": 7911,
      "ĠdÃ®nÃ©": 7912,
      "Ġnourriture": 7913,
      "Ġardeur": 7914,
      "Ġstatues": 7915,
      "ĠdÃ©livrer": 7916,
      "Ġroses": 7917,
      "Ġjaune": 7918,
      "Afrique": 7919,
      "Cl": 7920,
      "iaux": 7921,
      "mÃ¨re": 7922,
      "uge": 7923,
      "quitÃ©": 7924,
      "Ġah": 7925,
      "eule": 7926,
      "ork": 7927,
      "Ġbandes": 7928,
      "Ġbonnet": 7929,
      "ĠMoliÃ¨re": 7930,
      "ĠÃ©toff": 7931,
      "ĠPis": 7932,
      "Ġog": 7933,
      "ĠDon": 7934,
      "ĠDante": 7935,
      "ĠRa": 7936,
      "Â»;": 7937,
      "ĠÃ©crite": 7938,
      "Ġrecours": 7939,
      "Ġvenez": 7940,
      "Ġremis": 7941,
      "Ġaffir": 7942,
      "Ġrendus": 7943,
      "ĠpensÃ©": 7944,
      "armac": 7945,
      "entiment": 7946,
      "tiennent": 7947,
      "Ġaccepter": 7948,
      "ĠSouvent": 7949,
      "ĠcÃ©der": 7950,
      "Ġconseillers": 7951,
      "ĠNavarre": 7952,
      "Cette": 7953,
      "land": 7954,
      "ow": 7955,
      "ÃĢ": 7956,
      "Ġpend": 7957,
      "Ġsoyez": 7958,
      "Ġcum": 7959,
      "Ġdet": 7960,
      "entiel": 7961,
      "arÃ©": 7962,
      "ĠCond": 7963,
      "assaut": 7964,
      "mpe": 7965,
      "dici": 7966,
      "ĠallÃ©g": 7967,
      "ĠAlbertine": 7968,
      "Ġmenace": 7969,
      "annÃ©es": 7970,
      "Ġprincipales": 7971,
      "Ġgrossi": 7972,
      "inform": 7973,
      "ousseau": 7974,
      "Ġappartenait": 7975,
      "Ġjaloux": 7976,
      "ĠÃ©difice": 7977,
      "Ġemprun": 7978,
      "Ġfantaisie": 7979,
      "ĠÃītats": 7980,
      "Ass": 7981,
      "Marc": 7982,
      "fi": 7983,
      "lets": 7984,
      "Ġbillet": 7985,
      "ĠÃ©te": 7986,
      "ĠSul": 7987,
      "Ġconception": 7988,
      "ader": 7989,
      "adin": 7990,
      "ĠVÃ©r": 7991,
      "aÃ®tr": 7992,
      "Ġpeines": 7993,
      "Ġespoir": 7994,
      "Ġouvriers": 7995,
      "ĠAujourd": 7996,
      "ĠÃ©lÃ¨ve": 7997,
      "Ġreconnut": 7998,
      "Ġquitta": 7999,
      "tÃ©ritÃ©": 8000,
      "ĠsituÃ©e": 8001,
      "Ġvaincre": 8002,
      "ĠlittÃ©raires": 8003,
      "Ġemployer": 8004,
      "ĠosÃ©": 8005,
      "Ġossi": 8006,
      "Ġvastes": 8007,
      "Ġpoudre": 8008,
      "aucune": 8009,
      "Ġmerveilleux": 8010,
      "Ġharmon": 8011,
      "harmonie": 8012,
      "cr": 8013,
      "mm": 8014,
      "annes": 8015,
      "Ġfausse": 8016,
      "Ġtiennent": 8017,
      "Ġvins": 8018,
      "Ġben": 8019,
      "ĠÃ©lÃ©ments": 8020,
      "ĠCat": 8021,
      "liv": 8022,
      "sid": 8023,
      "ĠSusanne": 8024,
      "ims": 8025,
      "ĠarmÃ©": 8026,
      "ĠGar": 8027,
      "Ġflamb": 8028,
      "Ġconfr": 8029,
      "Ġpharmac": 8030,
      "Ann": 8031,
      "Ġsensations": 8032,
      "Ġincomp": 8033,
      "Ġride": 8034,
      "ĠÎ´": 8035,
      "Ġrivage": 8036,
      "grÃ©s": 8037,
      "ĠrÃ©volu": 8038,
      "Ġdisposer": 8039,
      "Ġprononc": 8040,
      "Ġpousser": 8041,
      "Ġrecommenc": 8042,
      "OLIÃĪRE": 8043,
      "ĠfrÃ©quemment": 8044,
      "Ġprudence": 8045,
      "ĠvÃ©nitien": 8046,
      "observation": 8047,
      "Ġcontemporains": 8048,
      "employer": 8049,
      "Dieu": 8050,
      "din": 8051,
      "ka": 8052,
      "Ġda": 8053,
      "Ġlass": 8054,
      "ĠvanitÃ©": 8055,
      "Ã¨ches": 8056,
      "Ġprai": 8057,
      "Ġgig": 8058,
      "ĠAp": 8059,
      "Ġarc": 8060,
      "Ġproj": 8061,
      "ical": 8062,
      "gnac": 8063,
      "Ġbrod": 8064,
      "Ġferoit": 8065,
      "ĠdÃ©cis": 8066,
      "Ġconvention": 8067,
      "Ġclasses": 8068,
      "ĠMarse": 8069,
      "Ġouvre": 8070,
      "accus": 8071,
      "Ġvoitures": 8072,
      "Ġsortant": 8073,
      "Ġ166": 8074,
      "Ġ178": 8075,
      "Ġviolente": 8076,
      "ĠtÃ©moins": 8077,
      "Ġrefusa": 8078,
      "Ġinstruments": 8079,
      "ĠramenÃ©": 8080,
      "Ġlecteur": 8081,
      "ĠmÃ©decins": 8082,
      "ĠassemblÃ©e": 8083,
      "ĠrÃ©pÃ©ter": 8084,
      "Ġemploi": 8085,
      "Ġpsychique": 8086,
      "ĠRichel": 8087,
      "Ġmultipli": 8088,
      "Ġvulgaire": 8089,
      "ĠPoitiers": 8090,
      "cques": 8091,
      "sur": 8092,
      "Ġdal": 8093,
      "Ġlances": 8094,
      "ĠpiÃ©": 8095,
      "Ġtiss": 8096,
      "Ġberce": 8097,
      "ĠMo": 8098,
      "six": 8099,
      "ĠViol": 8100,
      "Ġexact": 8101,
      "miers": 8102,
      "Ġcompatri": 8103,
      "ignan": 8104,
      "Ġcarte": 8105,
      "ĠHÃ©las": 8106,
      "ĠrÃ©pliqua": 8107,
      "Ġapplaud": 8108,
      "Ġpostes": 8109,
      "Ġsolitaire": 8110,
      "ommÃ©": 8111,
      "ibal": 8112,
      "Ġcommandait": 8113,
      "effroi": 8114,
      "Î½ÏĦ": 8115,
      "Ġconnaissances": 8116,
      "ĠcathÃ©drales": 8117,
      "Ġdirait": 8118,
      "ĠnÃ©gociations": 8119,
      "ĠdÃ©chir": 8120,
      "Ġpeintures": 8121,
      "Ġdoigt": 8122,
      "Ġprofession": 8123,
      "Ã©nergie": 8124,
      "ambassadeur": 8125,
      "EL": 8126,
      "bat": 8127,
      "gÃ©nÃ©ral": 8128,
      "honn": 8129,
      "hÃ©n": 8130,
      "oÃ®t": 8131,
      "raine": 8132,
      "Ġsat": 8133,
      "oun": 8134,
      "orges": 8135,
      "Ġbri": 8136,
      "alent": 8137,
      "Ġpourroit": 8138,
      "ĠPres": 8139,
      "Ġsachant": 8140,
      "ĠNÃ©": 8141,
      "Ġdevenus": 8142,
      "_.Â»": 8143,
      "acement": 8144,
      "Ġaig": 8145,
      "Ġadmi": 8146,
      "Ġsouliers": 8147,
      "Ġimpati": 8148,
      "ĠlivrÃ©": 8149,
      "ĠdÃ©cour": 8150,
      "Ġcherchant": 8151,
      "And": 8152,
      "ĠlÃ©gÃ¨rement": 8153,
      "ĠjournÃ©es": 8154,
      "Ġtransporter": 8155,
      "Ġsacrifices": 8156,
      "ĠimpÃ©riale": 8157,
      "alliance": 8158,
      "ĠLamarck": 8159,
      "ĠCheval": 8160,
      "ragon": 8161,
      "Ã©tiques": 8162,
      "Ġsott": 8163,
      "ĠdegrÃ©s": 8164,
      "arum": 8165,
      "initÃ©": 8166,
      "Ġratta": 8167,
      "asti": 8168,
      "ĠLomb": 8169,
      "riÃ¨s": 8170,
      "ĠMiss": 8171,
      "ĠMademoiselle": 8172,
      "ĠPoli": 8173,
      "uisant": 8174,
      "ierges": 8175,
      "Ġcocher": 8176,
      "ultan": 8177,
      "Ġsemblant": 8178,
      "Ġsaisi": 8179,
      "Ġcrimes": 8180,
      "Ġrapporter": 8181,
      "Ġsouffre": 8182,
      "Ġpareils": 8183,
      "Ġlevant": 8184,
      "Ġtentative": 8185,
      "ĠmajoritÃ©": 8186,
      "Ġfurieux": 8187,
      "ĠprotÃ©ger": 8188,
      "ĠgÃ©nÃ©reux": 8189,
      "cun": 8190,
      "feu": 8191,
      "taire": 8192,
      "enons": 8193,
      "Ġsites": 8194,
      "Ġdeus": 8195,
      "erd": 8196,
      "Ġfeux": 8197,
      "introd": 8198,
      "Ġenr": 8199,
      "riens": 8200,
      "Ġrelever": 8201,
      "uign": 8202,
      "ĠMaintenant": 8203,
      "assait": 8204,
      "assurer": 8205,
      "ĠdÃ©sastre": 8206,
      "Ġflag": 8207,
      "Ġflots": 8208,
      "Ġvoyais": 8209,
      "attendait": 8210,
      "ĠprÃ©sentait": 8211,
      "ĠreconnaÃ®t": 8212,
      "Ġsavoit": 8213,
      "Ġsortait": 8214,
      "Ġcampagnes": 8215,
      "ĠLAM": 8216,
      "ĠXVe": 8217,
      "ennui": 8218,
      "ĠÃ©prouvÃ©": 8219,
      "ĠcÃ©lÃ¨bres": 8220,
      "ĠdÃ©fauts": 8221,
      "ĠsÃ©parer": 8222,
      "ĠvÃ©nitienne": 8223,
      "Ġdistinction": 8224,
      "Ġoccasions": 8225,
      "abbaye": 8226,
      "Ġmusulm": 8227,
      "ĠpoussiÃ¨re": 8228,
      "comme": 8229,
      "Ïħ": 8230,
      "Ġliens": 8231,
      "ouchÃ©": 8232,
      "elaire": 8233,
      "Ġbottes": 8234,
      "aubert": 8235,
      "ageux": 8236,
      "ends": 8237,
      "avage": 8238,
      "Ġgren": 8239,
      "istocr": 8240,
      "ĠVent": 8241,
      "Ġdevez": 8242,
      "Ã©riques": 8243,
      "ogue": 8244,
      "espÃ©rance": 8245,
      "Ġvoulais": 8246,
      "iesme": 8247,
      "Ġcharger": 8248,
      "Ġempress": 8249,
      "Ġmerveille": 8250,
      "Ġ42": 8251,
      "Ġglace": 8252,
      "ateaux": 8253,
      "LES": 8254,
      "apprendre": 8255,
      "Ġdessins": 8256,
      "ISE": 8257,
      "ĠreprÃ©sentant": 8258,
      "Ġmauvaises": 8259,
      "ĠdestinÃ©es": 8260,
      "ĠtrompÃ©": 8261,
      "ĠClar": 8262,
      "Ġpardonner": 8263,
      "ĠtÃ©moignage": 8264,
      "ĠpuretÃ©": 8265,
      "Ġarticles": 8266,
      "Ġcamarade": 8267,
      "ĠenlevÃ©": 8268,
      "ĠLÃ©lia": 8269,
      "El": 8270,
      "yant": 8271,
      "ysi": 8272,
      "Ġlais": 8273,
      "euv": 8274,
      "Ġfissent": 8275,
      "oral": 8276,
      "Ġras": 8277,
      "ĠLion": 8278,
      "ript": 8279,
      "Ã©sie": 8280,
      "ĠMOLIÃĪRE": 8281,
      "Ġtra": 8282,
      "endi": 8283,
      "lige": 8284,
      "ĠÃ©tonnÃ©": 8285,
      "aculation": 8286,
      "ĠAuc": 8287,
      "exercice": 8288,
      "ĠBan": 8289,
      "Ġconquis": 8290,
      "Ġoultre": 8291,
      "ĠTuil": 8292,
      "Ġenter": 8293,
      "idÃ©es": 8294,
      "ĠGuy": 8295,
      "Ġcraint": 8296,
      "angis": 8297,
      "Ġcontrad": 8298,
      "ĠÃ©vÃªques": 8299,
      "Ġgenres": 8300,
      "ernelle": 8301,
      "Ġoccuper": 8302,
      "Ġtourna": 8303,
      "ĠLES": 8304,
      "Ġmettant": 8305,
      "ĠThomas": 8306,
      "Christ": 8307,
      "ĠprononcÃ©": 8308,
      "ĠprÃ©fÃ©rence": 8309,
      "Ġterminer": 8310,
      "Ġmagnifiques": 8311,
      "Ġfuneste": 8312,
      "Ġobstacles": 8313,
      "ĠLangue": 8314,
      "ĠintitulÃ©": 8315,
      "ĠÃ©pargn": 8316,
      "Ġabsolue": 8317,
      "ĠtranquillitÃ©": 8318,
      "ĠTuileries": 8319,
      "Ap": 8320,
      "HN": 8321,
      "IM": 8322,
      "iot": 8323,
      "Ġcuir": 8324,
      "Ġmou": 8325,
      "ĠmÅĵurs": 8326,
      "Ġfill": 8327,
      "tige": 8328,
      "ĠprÃªter": 8329,
      "onnettes": 8330,
      "activitÃ©": 8331,
      "Ġdict": 8332,
      "ĠdonnÃ¨rent": 8333,
      "Ġdemeurer": 8334,
      "Ġmatel": 8335,
      "Ġvisites": 8336,
      "Ġvisible": 8337,
      "Ġarrivent": 8338,
      "ĠarrivÃ©s": 8339,
      "Ġcombats": 8340,
      "Ġgliss": 8341,
      "Ġpromesse": 8342,
      "Ġpench": 8343,
      "Ġtournant": 8344,
      "Ġrouges": 8345,
      "Ġtribut": 8346,
      "ĠÃ©prouve": 8347,
      "Ġconduisit": 8348,
      "Ġtranquillement": 8349,
      "ĠrÃ¨gles": 8350,
      "Ġgracieux": 8351,
      "ĠAugus": 8352,
      "delÃł": 8353,
      "ĠMessieurs": 8354,
      "Ġtambour": 8355,
      "Ġsanctuaire": 8356,
      "ĠMantoue": 8357,
      "eil": 8358,
      "rand": 8359,
      "Ã©bre": 8360,
      "aies": 8361,
      "entins": 8362,
      "itaient": 8363,
      "auraient": 8364,
      "ĠLong": 8365,
      "Ġhu": 8366,
      "ĠhaÃ¯": 8367,
      "acif": 8368,
      "ĠAth": 8369,
      "ĠrÃ©gl": 8370,
      "ĠexÃ©cution": 8371,
      "illage": 8372,
      "ĠToul": 8373,
      "Ġcaress": 8374,
      "Ġamours": 8375,
      "Ġvoult": 8376,
      "uck": 8377,
      "ĠdÃ©cad": 8378,
      "ĠdÃ©cret": 8379,
      "Ġinterval": 8380,
      "affection": 8381,
      "Ġpopulations": 8382,
      "Ġgentils": 8383,
      "Ġreposer": 8384,
      "ĠdestinÃ©": 8385,
      "Ġramener": 8386,
      "Ġfournit": 8387,
      "Ġrenfer": 8388,
      "Ġguide": 8389,
      "Ġtapis": 8390,
      "Ġprochain": 8391,
      "Ġtorrent": 8392,
      "Ġquerelle": 8393,
      "major": 8394,
      "ĠRichelieu": 8395,
      "pel": 8396,
      "zaine": 8397,
      "Ġeur": 8398,
      "Ã©ti": 8399,
      "Ġpaille": 8400,
      "Ġsaill": 8401,
      "Ġmord": 8402,
      "armer": 8403,
      "Ġbaise": 8404,
      "Ġdurer": 8405,
      "ĠMON": 8406,
      "ĠhÃ©las": 8407,
      "sif": 8408,
      "onnaient": 8409,
      "Ġconserve": 8410,
      "Ġdeviers": 8411,
      "ĠÃ©cole": 8412,
      "Ġassavoir": 8413,
      "puiss": 8414,
      "Ġincert": 8415,
      "impÃ©ratrice": 8416,
      "Ġfalloit": 8417,
      "Ġpermettait": 8418,
      "ublique": 8419,
      "ĠNew": 8420,
      "Ġcouverts": 8421,
      "iendrait": 8422,
      "Ġitalien": 8423,
      "Ġcorrespondance": 8424,
      "ĠphÃ©nomÃ¨nes": 8425,
      "ĠvÃ©gÃ©t": 8426,
      "Mar": 8427,
      "lit": 8428,
      "mal": 8429,
      "Ġsourd": 8430,
      "Ġfre": 8431,
      "unitÃ©": 8432,
      "acul": 8433,
      "ĠJuli": 8434,
      "ĠVie": 8435,
      "Ġarme": 8436,
      "ĠNi": 8437,
      "ĠNangis": 8438,
      "ĠTerre": 8439,
      "ider": 8440,
      "ĠnommÃ©e": 8441,
      "Ġdonnons": 8442,
      "Ġapporter": 8443,
      "obtenir": 8444,
      "ĠdÃ©penses": 8445,
      "Ġservent": 8446,
      "ĠdÃ©fendu": 8447,
      "Ġfauteuil": 8448,
      "ĠAnvers": 8449,
      "Ġjouiss": 8450,
      "ĠtombÃ©": 8451,
      "ĠdÃ©bord": 8452,
      "Ġagents": 8453,
      "eusse": 8454,
      "ĠdÃ©marche": 8455,
      "Ġjuges": 8456,
      "Ġvaincu": 8457,
      "Ġdisput": 8458,
      "ĠmÃ©lange": 8459,
      "Ġfusil": 8460,
      "Ġillustres": 8461,
      "ĠÃ©normes": 8462,
      "ĠaperÃ§u": 8463,
      "ĠconsacrÃ©": 8464,
      "abandonner": 8465,
      "ĠbÃ¢ton": 8466,
      "ĠsincÃ¨re": 8467,
      "ĠHaynau": 8468,
      "dj": 8469,
      "gi": 8470,
      "mos": 8471,
      "Ġdot": 8472,
      "Ġpath": 8473,
      "Ġcrie": 8474,
      "ĠmathÃ©m": 8475,
      "Ġquoy": 8476,
      "Ġvass": 8477,
      "Ġrocher": 8478,
      "usses": 8479,
      "Ġaultre": 8480,
      "ĠÃ©tude": 8481,
      "old": 8482,
      "ĠSAN": 8483,
      "ĠDÃ©m": 8484,
      "exÃ©cut": 8485,
      "ĠBd": 8486,
      "ĠFEM": 8487,
      "Ġentendait": 8488,
      "Ġcontact": 8489,
      "Ġmarches": 8490,
      "Ġpartirent": 8491,
      "Ġflamme": 8492,
      "Ġcharmes": 8493,
      "Ġlaissent": 8494,
      "Ġ47": 8495,
      "ĠintÃ©rieur": 8496,
      "Ġhauts": 8497,
      "iliation": 8498,
      "expliquer": 8499,
      "ographe": 8500,
      "ĠÃ©crivains": 8501,
      "ĠdÃ©velopper": 8502,
      "Ġobserver": 8503,
      "Ġmilliers": 8504,
      "Ġhistorique": 8505,
      "Ġfantas": 8506,
      "itifs": 8507,
      "ĠBaudelaire": 8508,
      "ĠDanube": 8509,
      "ĠfossÃ©s": 8510,
      "Ġmouchoir": 8511,
      "Ġimmobile": 8512,
      "Ġincapable": 8513,
      "Saint": 8514,
      "reuve": 8515,
      "ĠmÃ¨s": 8516,
      "ĠtÃ©l": 8517,
      "ley": 8518,
      "Ġvar": 8519,
      "Ġnoy": 8520,
      "Ġjure": 8521,
      "Ġaurez": 8522,
      "aper": 8523,
      "orta": 8524,
      "Ã©rame": 8525,
      "ardeur": 8526,
      "ĠGÃªnes": 8527,
      "Ġforcer": 8528,
      "Ã©mÃ©n": 8529,
      "Ġador": 8530,
      "ĠimprimÃ©": 8531,
      "ournal": 8532,
      "Ã©vation": 8533,
      "Ġreproch": 8534,
      "Ġ46": 8535,
      "ĠinconvÃ©n": 8536,
      "ĠVenet": 8537,
      "oquois": 8538,
      "Ġcourtois": 8539,
      "ĠrefusÃ©": 8540,
      "ĠÃ©prouvait": 8541,
      "Ġsouverains": 8542,
      "iendra": 8543,
      "Ġobstacle": 8544,
      "Ġprochaine": 8545,
      "Ã©tranger": 8546,
      "ĠViolette": 8547,
      "dres": 8548,
      "ere": 8549,
      "horizon": 8550,
      "kh": 8551,
      "ogn": 8552,
      "Ġstr": 8553,
      "quÃ©es": 8554,
      "Ġapos": 8555,
      "Ġmie": 8556,
      "Ġnid": 8557,
      "Ġraff": 8558,
      "aule": 8559,
      "Ġgestes": 8560,
      "Ġchim": 8561,
      "Ġplain": 8562,
      "oly": 8563,
      "Ġoh": 8564,
      "emparer": 8565,
      "ĠTelle": 8566,
      "Ġdeviner": 8567,
      "ords": 8568,
      "Ã©galitÃ©": 8569,
      "ĠHeure": 8570,
      "icip": 8571,
      "ĠordonnÃ©": 8572,
      "Ġprofil": 8573,
      "Ġrestau": 8574,
      "Ġespagnol": 8575,
      "Ġindust": 8576,
      "ĠÃ©vident": 8577,
      "Ġ57": 8578,
      "Ġ58": 8579,
      "ĠrapportÃ©": 8580,
      "Ġennemie": 8581,
      "lÃ¨ve": 8582,
      "ĠdiffÃ©rent": 8583,
      "ĠprocÃ©dÃ©": 8584,
      "Ġtenoient": 8585,
      "ĠentraÃ®n": 8586,
      "ÃĪS": 8587,
      "ĠXVII": 8588,
      "Ġabandonner": 8589,
      "ĠÃ©loignÃ©": 8590,
      "IÃĪME": 8591,
      "Ġlabor": 8592,
      "Ġinstitutions": 8593,
      "28": 8594,
      "dic": 8595,
      "Ġ!": 8596,
      "estime": 8597,
      "Ġpire": 8598,
      "isant": 8599,
      "inversion": 8600,
      "aites": 8601,
      "aujourd": 8602,
      "ĠprÃ¦": 8603,
      "ĠprÃ©dÃ©": 8604,
      "Ġgorge": 8605,
      "ĠLui": 8606,
      "Ġplaintes": 8607,
      "oses": 8608,
      "aingne": 8609,
      "Ã©rences": 8610,
      "ĠDuc": 8611,
      "ĠBarb": 8612,
      "Ġarbre": 8613,
      "ĠHector": 8614,
      "ĠamÃ©ric": 8615,
      "cluse": 8616,
      "Ġfaisoient": 8617,
      "Ġassaut": 8618,
      "ĠdÃ©fil": 8619,
      "olies": 8620,
      "Ġrestes": 8621,
      "Ġvives": 8622,
      "lications": 8623,
      "Ġverrons": 8624,
      "ĠcommandÃ©": 8625,
      "Ġmuraille": 8626,
      "Ġcommuni": 8627,
      "ĠcouchÃ©": 8628,
      "berge": 8629,
      "Ġ83": 8630,
      "ĠYous": 8631,
      "ĠpoussÃ©": 8632,
      "Ġobtint": 8633,
      "Ġtalents": 8634,
      "Ġtextes": 8635,
      "Ġappartenant": 8636,
      "ĠintÃ©ressant": 8637,
      "aimait": 8638,
      "Ġphrases": 8639,
      "ĠprivilÃ©ges": 8640,
      "Ġmeubles": 8641,
      "Ã®nt": 8642,
      "Ġexclusivement": 8643,
      "ĠexceptÃ©": 8644,
      "ĠprÃ©dÃ©cess": 8645,
      ":--": 8646,
      "loc": 8647,
      "uin": 8648,
      "Ġdommage": 8649,
      "ĠpÃ©t": 8650,
      "Ġpousse": 8651,
      "ĠsÃ©r": 8652,
      "auff": 8653,
      "Ġduch": 8654,
      "Ġuniquement": 8655,
      "Ġplomb": 8656,
      "Ġplumes": 8657,
      "ĠMac": 8658,
      "ĠEs": 8659,
      "ĠRac": 8660,
      "Ġcontente": 8661,
      "ignit": 8662,
      "ucteurs": 8663,
      "Ġreprises": 8664,
      "Ġjambe": 8665,
      "ĠexpÃ©rience": 8666,
      "Ant": 8667,
      "Ils": 8668,
      "Ġ55": 8669,
      "Ġoccis": 8670,
      "ĠPourtant": 8671,
      "Ġsociale": 8672,
      "Ġrelativement": 8673,
      "ĠlevÃ©": 8674,
      "Ġtreize": 8675,
      "ĠdÃ©claration": 8676,
      "ĠÃ©tablis": 8677,
      "ĠespÃ©rance": 8678,
      "Ġsuffisamment": 8679,
      "ĠexÃ©cuter": 8680,
      "Ġmamel": 8681,
      "ĠmystÃ¨re": 8682,
      "Ġmunicip": 8683,
      "ĠobÃ©ir": 8684,
      "Ġsolid": 8685,
      "Ġglorieux": 8686,
      "extrÃ©mitÃ©": 8687,
      "ĠXXXV": 8688,
      "Ġnerfs": 8689,
      "ĠYousof": 8690,
      "24": 8691,
      ";Â»": 8692,
      "uen": 8693,
      "Î³": 8694,
      "Ġdons": 8695,
      "Ġpendu": 8696,
      "anie": 8697,
      "inent": 8698,
      "Ġrochers": 8699,
      "Ġparis": 8700,
      "Ġchoc": 8701,
      "Ġunif": 8702,
      "Ġplateau": 8703,
      "ĠMenÃ©": 8704,
      "ĠJos": 8705,
      "ĠÂ§": 8706,
      "ĠTol": 8707,
      "Ġenthousiasme": 8708,
      "ĠalÃ¨rent": 8709,
      "Ã»mes": 8710,
      "Ġdisoient": 8711,
      "Ġcourut": 8712,
      "Ġpassent": 8713,
      "Ġimpuiss": 8714,
      "Ġimpatience": 8715,
      "ĠdÃ©pÃ´t": 8716,
      "Ġsentence": 8717,
      "Ġrendent": 8718,
      "Ġrendue": 8719,
      "ĠprÃ©jug": 8720,
      "ĠjouÃ©": 8721,
      "Ġpapiers": 8722,
      "Ġoffrait": 8723,
      "Ġhauteurs": 8724,
      "Ġ63": 8725,
      "Ġteint": 8726,
      "Ġressent": 8727,
      "ĠAdonc": 8728,
      "Ġexistait": 8729,
      "Ġadmiration": 8730,
      "Ġcommission": 8731,
      "Ġitalienne": 8732,
      "Ġprimitive": 8733,
      "ĠdÃ©rob": 8734,
      "ĠQuoique": 8735,
      "Ġsoumission": 8736,
      "Ġpillage": 8737,
      "ĠmosquÃ©e": 8738,
      "examen": 8739,
      "Ġmonnaie": 8740,
      "ĠsÃ©curitÃ©": 8741,
      "ĠArtus": 8742,
      "ĠproblÃ¨me": 8743,
      "Ol": 8744,
      "Ġdignes": 8745,
      "reg": 8746,
      "Ġbret": 8747,
      "Ġbuv": 8748,
      "aveu": 8749,
      "Ã©rables": 8750,
      "adi": 8751,
      "adm": 8752,
      "Ġcommettre": 8753,
      "appare": 8754,
      "Ġfutur": 8755,
      "Ġdouces": 8756,
      "Ġposer": 8757,
      "Ġfranchement": 8758,
      "ĠallÃ¨rent": 8759,
      "Ġrestent": 8760,
      "asseoir": 8761,
      "Ġpromesses": 8762,
      "ĠCharlem": 8763,
      "ĠidÃ©al": 8764,
      "Ġtourne": 8765,
      "ĠreÃ§us": 8766,
      "ĠplacÃ©s": 8767,
      "offre": 8768,
      "ĠÃ©levÃ©es": 8769,
      "Ġtira": 8770,
      "ĠsÃ©rieusement": 8771,
      "Ġfixer": 8772,
      "ĠPlut": 8773,
      "Ġdonation": 8774,
      "ĠÃ©tablissement": 8775,
      "Ġpunir": 8776,
      "hÃ©rit": 8777,
      "ĠJusqu": 8778,
      "ĠAlexandrie": 8779,
      "Ġsuspend": 8780,
      "ĠÃ©pouser": 8781,
      "Ġmachine": 8782,
      "ĠdÃ©jeuner": 8783,
      "Ġformidable": 8784,
      "ĠRaoul": 8785,
      ",âĢĶ": 8786,
      "RÃī": 8787,
      "iche": 8788,
      "mond": 8789,
      "rut": 8790,
      "vol": 8791,
      "zac": 8792,
      "Î¸": 8793,
      "Ġsel": 8794,
      "itable": 8795,
      "ission": 8796,
      "Ġbec": 8797,
      "Ġbond": 8798,
      "Ġaul": 8799,
      "urÃ©s": 8800,
      "rion": 8801,
      "Ġpourrais": 8802,
      "ĠMonte": 8803,
      "Ġintr": 8804,
      "ĠDup": 8805,
      "ĠBas": 8806,
      "illa": 8807,
      "Ġoncques": 8808,
      "ĠrÃ©parer": 8809,
      "Ġbruy": 8810,
      "Ġports": 8811,
      "Ġvices": 8812,
      "Ġcharp": 8813,
      "ĠrÃ©sulte": 8814,
      "Ġvolent": 8815,
      "Ġchevalerie": 8816,
      "ĠAnn": 8817,
      "Ġexplique": 8818,
      "Ġindig": 8819,
      "ĠAllons": 8820,
      "REM": 8821,
      "Ġmorb": 8822,
      "acha": 8823,
      "contre": 8824,
      "ĠcroisÃ©s": 8825,
      "ĠvoÃ»te": 8826,
      "Ġpension": 8827,
      "ĠdÃ©clarer": 8828,
      "environ": 8829,
      "ĠengagÃ©": 8830,
      "Ġairs": 8831,
      "Ġnavire": 8832,
      "ĠlumiÃ¨res": 8833,
      "Ġcesser": 8834,
      "Ġconstater": 8835,
      "Ġsaincte": 8836,
      "Ġbureau": 8837,
      "ĠBaviÃ¨re": 8838,
      "ĠChacun": 8839,
      "Royal": 8840,
      "ĠVÃ©rone": 8841,
      "ĠMarseille": 8842,
      "29": 8843,
      "fais": 8844,
      "ker": 8845,
      "lÃ©g": 8846,
      "oquÃ©": 8847,
      "peu": 8848,
      "Ġcuiv": 8849,
      "ĠmÃĥ": 8850,
      "ĠrÃ©tr": 8851,
      "liquÃ©": 8852,
      "ĠAllem": 8853,
      "Ã©table": 8854,
      "ĠBerg": 8855,
      "ĠRoy": 8856,
      "Ġ100": 8857,
      "ulaires": 8858,
      "ĠTouss": 8859,
      "Ġdeviennent": 8860,
      "assÃ©e": 8861,
      "Ġappliqu": 8862,
      "Ġflott": 8863,
      "ausses": 8864,
      "Ġsentais": 8865,
      "Ġsuivent": 8866,
      "Ġhabitude": 8867,
      "Ġvision": 8868,
      "ĠarrivÃ¨rent": 8869,
      "lÃ©tement": 8870,
      "Ġintentions": 8871,
      "Ġ59": 8872,
      "ĠfacultÃ©": 8873,
      "ĠMontmor": 8874,
      "Ġ65": 8875,
      "envoy": 8876,
      "ĠHenriot": 8877,
      "Ġcourses": 8878,
      "Ġvagues": 8879,
      "Ġpartisans": 8880,
      "Ġmasochisme": 8881,
      "Ġmassac": 8882,
      "Ã´pital": 8883,
      "Ġenceinte": 8884,
      "Ġberceau": 8885,
      "Moi": 8886,
      "UT": 8887,
      "pet": 8888,
      "pres": 8889,
      "ren": 8890,
      "Ġom": 8891,
      "Ġsons": 8892,
      "Ġcav": 8893,
      "Ġfoyer": 8894,
      "Ã¨vent": 8895,
      "eurast": 8896,
      "ĠÃ©chev": 8897,
      "rien": 8898,
      "Ġplong": 8899,
      "agÃ©es": 8900,
      "ĠMidi": 8901,
      "ĠdÃ©riv": 8902,
      "ĠEr": 8903,
      "ĠRousseau": 8904,
      "ensÃ©": 8905,
      "ĠVÃ©n": 8906,
      "ĠTemple": 8907,
      "Ã©rid": 8908,
      "aissait": 8909,
      "ĠÃ©coute": 8910,
      "ĠÃ©poques": 8911,
      "Ġproph": 8912,
      "Ġaffreux": 8913,
      "Ġouvrit": 8914,
      "!...--": 8915,
      "Ġnuits": 8916,
      "Ġcontinuait": 8917,
      "Ġentendit": 8918,
      "Ġmaladies": 8919,
      "ĠconsÃ©quences": 8920,
      "aussÃ©e": 8921,
      "ĠprÃ©paratifs": 8922,
      "Ġrenfor": 8923,
      "ĠimpÃ©rial": 8924,
      "ĠÃ©quiv": 8925,
      "ĠMichel": 8926,
      "Ġcrestiens": 8927,
      "ĠLatins": 8928,
      "DI": 8929,
      "Dites": 8930,
      "Ec": 8931,
      "Marie": 8932,
      "Voyez": 8933,
      "^{": 8934,
      "mil": 8935,
      "nier": 8936,
      "ook": 8937,
      "Ã©te": 8938,
      "Ġpel": 8939,
      "Ġpati": 8940,
      "Ġsable": 8941,
      "nemens": 8942,
      "Ġtome": 8943,
      "Ġres": 8944,
      "Ġrit": 8945,
      "Ġprose": 8946,
      "ĠCler": 8947,
      "avera": 8948,
      "ĠItem": 8949,
      "Ã©tudes": 8950,
      "ĠThe": 8951,
      "Ġliaison": 8952,
      "ĠOth": 8953,
      "teries": 8954,
      "ĠcomplÃ©tement": 8955,
      "rÃ©tion": 8956,
      "Ġperc": 8957,
      "Ġbron": 8958,
      "ĠaimÃ©e": 8959,
      "Ġrevenait": 8960,
      "Ġretran": 8961,
      "Ġminute": 8962,
      "ĠprÃ©sentent": 8963,
      "ambition": 8964,
      "ĠReims": 8965,
      "Ġperdit": 8966,
      "enfants": 8967,
      "Ġformaient": 8968,
      "Ġprends": 8969,
      "ĠobligÃ©s": 8970,
      "Ġcitad": 8971,
      "Ġponts": 8972,
      "riptions": 8973,
      "ĠdisparaÃ®tre": 8974,
      "Ġdistingue": 8975,
      "Ġaccorder": 8976,
      "ĠgagnÃ©": 8977,
      "Ġinutiles": 8978,
      "Ġgroupes": 8979,
      "Ġbrigade": 8980,
      "ĠfrontiÃ¨res": 8981,
      "Î¿Ïħ": 8982,
      "ĠrÃ©solut": 8983,
      "Ġennuy": 8984,
      "Ġfragments": 8985,
      "ĠDorville": 8986,
      "ĠprÃ©cautions": 8987,
      "ĠRÃ©publique": 8988,
      "ĠpÃ©dÃ©r": 8989,
      "Cela": 8990,
      "Ġclef": 8991,
      "ĠDavid": 8992,
      "ĠprovenÃ§ale": 8993,
      "Ġfroide": 8994,
      "obscuritÃ©": 8995,
      "25": 8996,
      "Ath": 8997,
      "pin": 8998,
      "esques": 8999,
      "Ġpin": 9000,
      "Ġsois": 9001,
      "ĠcÃ©": 9002,
      "Ġfui": 9003,
      "ĠfÃ©ro": 9004,
      "Ġroutes": 9005,
      "ĠprÃĥ": 9006,
      "Ġgib": 9007,
      "ĠLoe": 9008,
      "ĠchÃ©": 9009,
      "ĠMer": 9010,
      "ĠPÃ¨re": 9011,
      "orth": 9012,
      "ĠAss": 9013,
      "Ã©taires": 9014,
      "ĠrÃ©cl": 9015,
      "Ã®nÃ©": 9016,
      "trois": 9017,
      "ĠGalehaut": 9018,
      "Ġdevais": 9019,
      "Ġanorm": 9020,
      "Ġseuil": 9021,
      "Ġvieil": 9022,
      "ĠguÃ©r": 9023,
      "Ġrevanche": 9024,
      "Ġsuivie": 9025,
      "Ġsuivantes": 9026,
      "Ġexprimer": 9027,
      "ĠlÃ©gende": 9028,
      "late": 9029,
      "Ġremparts": 9030,
      "ettaient": 9031,
      "ĠthÃ©Ã¢tres": 9032,
      "Ġ134": 9033,
      "Ġimportantes": 9034,
      "Ġsilen": 9035,
      "ĠfrÃ©m": 9036,
      "Ġacheter": 9037,
      "ĠÃ©ditions": 9038,
      "ĠrÃ©servÃ©": 9039,
      "Ġcomparaison": 9040,
      "Ġfabric": 9041,
      "Ġrecueillir": 9042,
      "Ġjustifier": 9043,
      "Ġmobile": 9044,
      "Ġcommissaire": 9045,
      "ÏİÎ½": 9046,
      "Ġarchitectes": 9047,
      "ĠFEMME": 9048,
      "Comme": 9049,
      "GN": 9050,
      "OS": 9051,
      "cÃ´t": 9052,
      "enal": 9053,
      "Ġcort": 9054,
      "aile": 9055,
      "Ġdeuil": 9056,
      "rel": 9057,
      "Ġmers": 9058,
      "Ġmienne": 9059,
      "Ġvesti": 9060,
      "Ġruisse": 9061,
      "Ġenseigne": 9062,
      "Ġprou": 9063,
      "ĠLamb": 9064,
      "Ġplans": 9065,
      "oschi": 9066,
      "ĠPage": 9067,
      "ĠDÃ©s": 9068,
      "exil": 9069,
      "rante": 9070,
      "ĠTage": 9071,
      "Ã®tre": 9072,
      "Ġdisgr": 9073,
      "llez": 9074,
      "Ġperversion": 9075,
      "ĠrevÃªt": 9076,
      "Ġsuivants": 9077,
      "ĠappelÃ©e": 9078,
      "Ġromans": 9079,
      "Ġtrompe": 9080,
      "lstir": 9081,
      "ĠrÃ©cits": 9082,
      "othÃ¨ques": 9083,
      "ĠassurÃ©ment": 9084,
      "Ġrenferm": 9085,
      "Ġcopie": 9086,
      "Ġcraignait": 9087,
      "Ġsoudan": 9088,
      "ĠchÃ¢ti": 9089,
      "Ġaveugle": 9090,
      "ĠAndrÃ©": 9091,
      "Ġautels": 9092,
      "aventure": 9093,
      "ĠXVIe": 9094,
      "ĠVoltaire": 9095,
      "ĠHugo": 9096,
      "ĠÎºÎ±Î¯": 9097,
      "iraboschi": 9098,
      "ĠSully": 9099,
      "bour": 9100,
      "nau": 9101,
      "rat": 9102,
      "ĠpÃ©": 9103,
      "Ġvac": 9104,
      "ĠvÃªt": 9105,
      "Ã¨tres": 9106,
      "ĠLim": 9107,
      "Ġpleure": 9108,
      "ĠdÃ©gr": 9109,
      "olit": 9110,
      "ĠmariÃ©": 9111,
      "Ġamants": 9112,
      "ĠÃ©couter": 9113,
      "Ġeus": 9114,
      "Ġcorri": 9115,
      "Ġserviteur": 9116,
      "iÃ¨te": 9117,
      "Ġmorales": 9118,
      "ĠChartres": 9119,
      "ĠArch": 9120,
      "Ġinternet": 9121,
      "ĠretournÃ¨rent": 9122,
      "oissons": 9123,
      "ĠÃ©glyse": 9124,
      "Ġpoussa": 9125,
      "ĠtentÃ©": 9126,
      "ĠfixÃ©": 9127,
      "ĠabandonnÃ©": 9128,
      "bleu": 9129,
      "Ġdistinguer": 9130,
      "ĠgravitÃ©": 9131,
      "ĠnÃ¨gre": 9132,
      "ĠpropriÃ©taire": 9133,
      "Ġlargeur": 9134,
      "Ġesclave": 9135,
      "ĠCalais": 9136,
      "ĠTalavera": 9137,
      "ĠgaietÃ©": 9138,
      "brun": 9139,
      "Ġinfiniment": 9140,
      "ĠBibli": 9141,
      "ĠrÃ©ussir": 9142,
      "Ġconvaincu": 9143,
      "propre": 9144,
      "assemblÃ©e": 9145,
      "oÃ»ter": 9146,
      "Auguste": 9147,
      "Ġceinture": 9148,
      "ĠCÃ©sar": 9149,
      "ourer": 9150,
      "entret": 9151,
      "Ġleg": 9152,
      "ĠrÃ©tablir": 9153,
      "aumes": 9154,
      "Ġauroit": 9155,
      "Ġparent": 9156,
      "Ġger": 9157,
      "atan": 9158,
      "ĠMath": 9159,
      "ecd": 9160,
      "onnÃ¨rent": 9161,
      "ortable": 9162,
      "acÃ©s": 9163,
      "ĠAllemagne": 9164,
      "Ġsache": 9165,
      "adj": 9166,
      "ĠOb": 9167,
      ".Â»]": 9168,
      "ĠEnc": 9169,
      "ĠpersÃ©v": 9170,
      "Ġperspec": 9171,
      "Ġacord": 9172,
      "ĠmontÃ©": 9173,
      "Ġattendu": 9174,
      "Ġfamili": 9175,
      "ĠfondÃ©": 9176,
      "Ġ140": 9177,
      "Ġsauve": 9178,
      "ĠsÃ©ance": 9179,
      "ĠconquÃªtes": 9180,
      "Ġparvint": 9181,
      "Ġnavires": 9182,
      "engager": 9183,
      "ĠÃ©trangÃ¨re": 9184,
      "Ġhonorable": 9185,
      "ĠpossÃ©der": 9186,
      "ospit": 9187,
      "ĠJÃ©suites": 9188,
      "ĠSavoie": 9189,
      "Ġsexualis": 9190,
      "ĠMexique": 9191,
      "ĠfraÃ®cheur": 9192,
      "Ġapercevoir": 9193,
      "organisation": 9194,
      "ĠÃ´ter": 9195,
[...]
